{
  "version": "1.0",
  "truncation": {
    "direction": "Right",
    "max_length": 512,
    "strategy": "LongestFirst",
    "stride": 0
  },
  "padding": {
    "strategy": "BatchLongest",
    "direction": "Right",
    "pad_to_multiple_of": null,
    "pad_id": 0,
    "pad_type_id": 0,
    "pad_token": "[PAD]"
  },
  "added_tokens": [
    {
      "id": 0,
      "content": "[PAD]",
      "single_word": false,
      "lstrip": false,
      "rstrip": false,
      "normalized": false,
      "special": true
    },
    {
      "id": 1,
      "content": "[UNK]",
      "single_word": false,
      "lstrip": false,
      "rstrip": false,
      "normalized": false,
      "special": true
    },
    {
      "id": 2,
      "content": "[CLS]",
      "single_word": false,
      "lstrip": false,
      "rstrip": false,
      "normalized": false,
      "special": true
    },
    {
      "id": 3,
      "content": "[SEP]",
      "single_word": false,
      "lstrip": false,
      "rstrip": false,
      "normalized": false,
      "special": true
    },
    {
      "id": 4,
      "content": "[MASK]",
      "single_word": false,
      "lstrip": false,
      "rstrip": false,
      "normalized": false,
      "special": true
    }
  ],
  "normalizer": {
    "type": "Sequence",
    "normalizers": [
      {
        "type": "Strip",
        "strip_left": true,
        "strip_right": true
      },
      {
        "type": "Lowercase"
      },
      {
        "type": "Replace",
        "pattern": {
          "String": "\\"
        },
        "content": "\\\\"
      },
      {
        "type": "Replace",
        "pattern": {
          "String": "_"
        },
        "content": "\\u"
      },
      {
        "type": "Replace",
        "pattern": {
          "Regex": "(?<=[\\W])|(?=[\\W])"
        },
        "content": " "
      },
      {
        "type": "Replace",
        "pattern": {
          "Regex": "\\A\\s"
        },
        "content": ""
      },
      {
        "type": "Replace",
        "pattern": {
          "Regex": "\\s+|$"
        },
        "content": "_"
      }
    ]
  },
  "pre_tokenizer": {
    "type": "Sequence",
    "pretokenizers": [
      {
        "type": "Split",
        "pattern": {
          "String": "_"
        },
        "behavior": "MergedWithPrevious",
        "invert": false
      }
    ]
  },
  "post_processor": {
    "type": "BertProcessing",
    "sep": [
      "[SEP]",
      3
    ],
    "cls": [
      "[CLS]",
      2
    ]
  },
  "decoder": {
    "type": "BPEDecoder",
    "suffix": "_"
  },
  "model": {
    "type": "WordPiece",
    "unk_token": "[UNK]",
    "continuing_subword_prefix": "",
    "max_input_chars_per_word": 100,
    "vocab": {
      "[PAD]": 0,
      "[UNK]": 1,
      "[CLS]": 2,
      "[SEP]": 3,
      "[MASK]": 4,
      "<pad>_": 5,
      "<EOS>_": 6,
      ",_": 7,
      "._": 8,
      "_": 9,
      "et_": 10,
      "-_": 11,
      "in_": 12,
      ";_": 13,
      "s_": 14,
      "est_": 15,
      "a_": 16,
      ":_": 17,
      "ne_": 18,
      "i_": 19,
      "non_": 20,
      "m_": 21,
      "ad_": 22,
      "e_": 23,
      "o_": 24,
      "quod_": 25,
      ")_": 26,
      "um_": 27,
      "^_": 28,
      "t_": 29,
      "de_": 30,
      "ut_": 31,
      "(_": 32,
      "&_": 33,
      "us_": 34,
      "que_": 35,
      "cum_": 36,
      "is_": 37,
      "qui_": 38,
      "sed_": 39,
      "si_": 40,
      "ex_": 41,
      "per_": 42,
      "quae_": 43,
      "apos_": 44,
      "\"_": 45,
      "?_": 46,
      "hoc_": 47,
      "1_": 48,
      "sunt_": 49,
      "esse_": 50,
      "c_": 51,
      "se_": 52,
      "autem_": 53,
      "enim_": 54,
      "quam_": 55,
      "quia_": 56,
      "2_": 57,
      "*_": 58,
      "re_": 59,
      "]_": 60,
      "vel_": 61,
      "es_": 62,
      "ab_": 63,
      "r_": 64,
      "etiam_": 65,
      "—_": 66,
      "tur_": 67,
      "nt_": 68,
      "am_": 69,
      "it_": 70,
      "3_": 71,
      "te_": 72,
      "[_": 73,
      "sit_": 74,
      "p_": 75,
      "l_": 76,
      "ur_": 77,
      "4_": 78,
      "»_": 79,
      "bus_": 80,
      "em_": 81,
      "aut_": 82,
      "at_": 83,
      "v_": 84,
      "os_": 85,
      "nec_": 86,
      "d_": 87,
      "pro_": 88,
      "ae_": 89,
      "quo_": 90,
      "rum_": 91,
      "ergo_": 92,
      "5_": 93,
      "«_": 94,
      "id_": 95,
      "ac_": 96,
      "me_": 97,
      "'_": 98,
      "quid_": 99,
      "6_": 100,
      "ii_": 101,
      "sic_": 102,
      "ita_": 103,
      "mus_": 104,
      "unt_": 105,
      "sicut_": 106,
      "tamen_": 107,
      "atque_": 108,
      "secundum_": 109,
      "as_": 110,
      "8_": 111,
      "nam_": 112,
      "7_": 113,
      "dei_": 114,
      "eo_": 115,
      "orum_": 116,
      "u_": 117,
      "ns_": 118,
      "erat_": 119,
      "q_": 120,
      "n_": 121,
      "anno_": 122,
      "haec_": 123,
      "9_": 124,
      "dicit_": 125,
      "b_": 126,
      "io_": 127,
      "ea_": 128,
      "f_": 129,
      "ri_": 130,
      "qua_": 131,
      "vero_": 132,
      "fuit_": 133,
      "x_": 134,
      "tum_": 135,
      "amp_": 136,
      "inter_": 137,
      "quot_": 138,
      "ejus_": 139,
      "potest_": 140,
      "eum_": 141,
      "unde_": 142,
      "nisi_": 143,
      "nos_": 144,
      "quibus_": 145,
      "deus_": 146,
      "quidem_": 147,
      "j_": 148,
      "ei_": 149,
      "dum_": 150,
      "/_": 151,
      "\\\\_": 152,
      "die_": 153,
      "eius_": 154,
      "ipse_": 155,
      "modo_": 156,
      "post_": 157,
      "ntur_": 158,
      "tis_": 159,
      "ibus_": 160,
      "g_": 161,
      "super_": 162,
      "dicitur_": 163,
      "omnia_": 164,
      "y_": 165,
      "neque_": 166,
      "omnes_": 167,
      "hic_": 168,
      "nobis_": 169,
      "contra_": 170,
      "ubi_": 171,
      "h_": 172,
      "vit_": 173,
      "apud_": 174,
      "gt_": 175,
      "propter_": 176,
      "iam_": 177,
      "sibi_": 178,
      "his_": 179,
      "quem_": 180,
      "eorum_": 181,
      "mihi_": 182,
      "or_": 183,
      "ta_": 184,
      "nihil_": 185,
      "ego_": 186,
      "igitur_": 187,
      "sine_": 188,
      "ideo_": 189,
      "deo_": 190,
      "nunc_": 191,
      "erit_": 192,
      "ante_": 193,
      "tibi_": 194,
      "ti_": 195,
      "ia_": 196,
      "illa_": 197,
      "res_": 198,
      "di_": 199,
      "tu_": 200,
      "iii_": 201,
      "an_": 202,
      "illud_": 203,
      "tam_": 204,
      "ni_": 205,
      "vi_": 206,
      "quasi_": 207,
      "lib_": 208,
      "quoque_": 209,
      "habet_": 210,
      "ille_": 211,
      "eos_": 212,
      "ant_": 213,
      "to_": 214,
      "quis_": 215,
      "10_": 216,
      "esset_": 217,
      "omnibus_": 218,
      "dominus_": 219,
      "lt_": 220,
      "magis_": 221,
      "0_": 222,
      "ibi_": 223,
      "scilicet_": 224,
      "sua_": 225,
      "ret_": 226,
      "bat_": 227,
      "ere_": 228,
      "alia_": 229,
      "videtur_": 230,
      "sub_": 231,
      "idem_": 232,
      "sive_": 233,
      "causa_": 234,
      "•_": 235,
      "!_": 236,
      "ter_": 237,
      "er_": 238,
      "tantum_": 239,
      "cap_": 240,
      "primo_": 241,
      "do_": 242,
      "ipsa_": 243,
      "deum_": 244,
      "nis_": 245,
      "primum_": 246,
      "eam_": 247,
      "iv_": 248,
      "la_": 249,
      "ra_": 250,
      "sse_": 251,
      "ius_": 252,
      "eis_": 253,
      "le_": 254,
      "homo_": 255,
      "tus_": 256,
      "11_": 257,
      "ct_": 258,
      "aliquid_": 259,
      "quos_": 260,
      "semper_": 261,
      "jam_": 262,
      "cui_": 263,
      "tempore_": 264,
      "ve_": 265,
      "k_": 266,
      "quantum_": 267,
      "12_": 268,
      "ait_": 269,
      "ipsum_": 270,
      "|_": 271,
      "suo_": 272,
      "domini_": 273,
      "nem_": 274,
      "unum_": 275,
      "loco_": 276,
      "illi_": 277,
      "supra_": 278,
      "usque_": 279,
      "christi_": 280,
      "15_": 281,
      "rem_": 282,
      "tunc_": 283,
      "aliis_": 284,
      "nomen_": 285,
      "solum_": 286,
      "dicendum_": 287,
      "sint_": 288,
      "quando_": 289,
      "untur_": 290,
      "suis_": 291,
      "li_": 292,
      "iis_": 293,
      "dixit_": 294,
      "una_": 295,
      "vos_": 296,
      "hac_": 297,
      "etc_": 298,
      "ium_": 299,
      "hanc_": 300,
      "14_": 301,
      "erunt_": 302,
      "quoniam_": 303,
      "circa_": 304,
      "suam_": 305,
      "no_": 306,
      "£_": 307,
      "20_": 308,
      "parte_": 309,
      "num_": 310,
      "tio_": 311,
      "deinde_": 312,
      "sum_": 313,
      "filius_": 314,
      "suum_": 315,
      "ue_": 316,
      "rerum_": 317,
      "13_": 318,
      "co_": 319,
      "16_": 320,
      "atur_": 321,
      "corpus_": 322,
      "dictum_": 323,
      "erant_": 324,
      "da_": 325,
      "pater_": 326,
      "tes_": 327,
      "na_": 328,
      "item_": 329,
      "aliud_": 330,
      "fit_": 331,
      "vobis_": 332,
      "illis_": 333,
      "ipso_": 334,
      "omnium_": 335,
      "17_": 336,
      "alii_": 337,
      "sui_": 338,
      "ca_": 339,
      "nomine_": 340,
      "tua_": 341,
      "terra_": 342,
      "omnis_": 343,
      "tas_": 344,
      "ce_": 345,
      "itaque_": 346,
      "bonum_": 347,
      "om_": 348,
      "fuerit_": 349,
      "inquit_": 350,
      "bant_": 351,
      "lis_": 352,
      "minus_": 353,
      "fuisse_": 354,
      "25_": 355,
      "inde_": 356,
      "tem_": 357,
      "verum_": 358,
      "ris_": 359,
      "the_": 360,
      "natura_": 361,
      "quas_": 362,
      "spiritus_": 363,
      "homines_": 364,
      "eadem_": 365,
      "licet_": 366,
      "18_": 367,
      "el_": 368,
      "praeterea_": 369,
      "ratio_": 370,
      "ipsi_": 371,
      "itur_": 372,
      "domino_": 373,
      "seu_": 374,
      "ratione_": 375,
      "cor_": 376,
      "dies_": 377,
      "possit_": 378,
      "^^_": 379,
      "rebus_": 380,
      "bene_": 381,
      "verba_": 382,
      "facit_": 383,
      "rei_": 384,
      "duo_": 385,
      "ndum_": 386,
      "cf_": 387,
      "cuius_": 388,
      "illo_": 389,
      "ens_": 390,
      "pars_": 391,
      ".&_": 392,
      "ent_": 393,
      "mea_": 394,
      "fieri_": 395,
      "caput_": 396,
      "ui_": 397,
      "gratia_": 398,
      "eodem_": 399,
      "ntes_": 400,
      "quum_": 401,
      "19_": 402,
      "onem_": 403,
      "hunc_": 404,
      "ista_": 405,
      "omni_": 406,
      "quomodo_": 407,
      "vita_": 408,
      "les_": 409,
      "ecclesiae_": 410,
      "mur_": 411,
      "habere_": 412,
      "adhuc_": 413,
      "simul_": 414,
      "im_": 415,
      "nostri_": 416,
      "ipsius_": 417,
      "anima_": 418,
      "uit_": 419,
      "etur_": 420,
      "tempus_": 421,
      "secundo_": 422,
      "posse_": 423,
      "facta_": 424,
      "prima_": 425,
      "quorum_": 426,
      "christus_": 427,
      "nostra_": 428,
      "ide_": 429,
      "sancti_": 430,
      "multa_": 431,
      "maxime_": 432,
      "fecit_": 433,
      "ionem_": 434,
      "ob_": 435,
      "verbum_": 436,
      "locum_": 437,
      "opus_": 438,
      "hi_": 439,
      "ecclesia_": 440,
      "natus_": 441,
      "w_": 442,
      "illum_": 443,
      "lo_": 444,
      "z_": 445,
      "21_": 446,
      "facere_": 447,
      "§_": 448,
      "mi_": 449,
      "ci_": 450,
      "hominum_": 451,
      "ndo_": 452,
      "prius_": 453,
      "nm_": 454,
      "quidam_": 455,
      "sa_": 456,
      "bona_": 457,
      "22_": 458,
      "suae_": 459,
      "{_": 460,
      "round_": 461,
      "oportet_": 462,
      "rex_": 463,
      "possunt_": 464,
      "satis_": 465,
      "■_": 466,
      "ndi_": 467,
      "peccatum_": 468,
      "ore_": 469,
      "cujus_": 470,
      "habent_": 471,
      "postea_": 472,
      "rent_": 473,
      "nus_": 474,
      "illius_": 475,
      "factum_": 476,
      "vis_": 477,
      "æ_": 478,
      "domi_": 479,
      "24_": 480,
      "hominis_": 481,
      "uno_": 482,
      "sti_": 483,
      "dicere_": 484,
      "||_": 485,
      "onis_": 486,
      "corporis_": 487,
      "unus_": 488,
      "hinc_": 489,
      "ro_": 490,
      "vii_": 491,
      "rationem_": 492,
      "nulla_": 493,
      "alio_": 494,
      "debet_": 495,
      "sset_": 496,
      "23_": 497,
      "filii_": 498,
      "sequitur_": 499,
      "imus_": 500,
      "ix_": 501,
      "plus_": 502,
      "patet_": 503,
      "arum_": 504,
      "hominem_": 505,
      "quaedam_": 506,
      "27_": 507,
      "filium_": 508,
      "al_": 509,
      "bis_": 510,
      "fidem_": 511,
      "sent_": 512,
      "ed_": 513,
      "christo_": 514,
      "opera_": 515,
      "potius_": 516,
      "fi_": 517,
      "huius_": 518,
      "of_": 519,
      "dominum_": 520,
      "ma_": 521,
      "26_": 522,
      "vitam_": 523,
      "bit_": 524,
      "28_": 525,
      "=_": 526,
      "quare_": 527,
      "il_": 528,
      "omnino_": 529,
      "omne_": 530,
      "cetera_": 531,
      "genus_": 532,
      "magna_": 533,
      "qu_": 534,
      "forte_": 535,
      "terram_": 536,
      "nes_": 537,
      "utrum_": 538,
      "mortem_": 539,
      "ecce_": 540,
      "vitae_": 541,
      "modum_": 542,
      "hujus_": 543,
      "saepe_": 544,
      "quamvis_": 545,
      "verbis_": 546,
      "forma_": 547,
      "aliqua_": 548,
      "batur_": 549,
      "„_": 550,
      "30_": 551,
      "nemo_": 552,
      "xi_": 553,
      "antur_": 554,
      "cur_": 555,
      "retur_": 556,
      "illam_": 557,
      "so_": 558,
      "patris_": 559,
      "totum_": 560,
      "regione_": 561,
      "partem_": 562,
      "dicens_": 563,
      "tres_": 564,
      "vir_": 565,
      "motus_": 566,
      "ostendit_": 567,
      "partes_": 568,
      "recte_": 569,
      "fidei_": 570,
      "viii_": 571,
      "corpore_": 572,
      "aliquis_": 573,
      "ai_": 574,
      "arg_": 575,
      "manus_": 576,
      "sententia_": 577,
      "dig_": 578,
      "dedit_": 579,
      "29_": 580,
      "sis_": 581,
      "ores_": 582,
      "uti_": 583,
      "christum_": 584,
      "tuum_": 585,
      "malum_": 586,
      "dici_": 587,
      "causam_": 588,
      "meum_": 589,
      "runt_": 590,
      "aliter_": 591,
      "mo_": 592,
      "venit_": 593,
      "necesse_": 594,
      "olim_": 595,
      "nte_": 596,
      "multis_": 597,
      "tate_": 598,
      "finem_": 599,
      "isse_": 600,
      "naturae_": 601,
      "factus_": 602,
      "iterum_": 603,
      "are_": 604,
      "lege_": 605,
      "naturam_": 606,
      "manu_": 607,
      "actus_": 608,
      "matth_": 609,
      "diem_": 610,
      "gratiam_": 611,
      "regis_": 612,
      "praeter_": 613,
      "posset_": 614,
      "tibus_": 615,
      "oratio_": 616,
      "nda_": 617,
      "ge_": 618,
      "$_": 619,
      "certe_": 620,
      "pr_": 621,
      "mortuus_": 622,
      "omnem_": 623,
      "tui_": 624,
      "eft_": 625,
      "fide_": 626,
      "iu_": 627,
      "^&_": 628,
      "%_": 629,
      "incolarum_": 630,
      "°_": 631,
      "denique_": 632,
      "annis_": 633,
      "alios_": 634,
      "ura_": 635,
      "filio_": 636,
      "mundi_": 637,
      "suos_": 638,
      "fere_": 639,
      "adeo_": 640,
      "patrem_": 641,
      "quin_": 642,
      "rom_": 643,
      "vera_": 644,
      "bo_": 645,
      "virtus_": 646,
      "regnum_": 647,
      "cm_": 648,
      "lem_": 649,
      "bellum_": 650,
      "libro_": 651,
      "lum_": 652,
      "ionis_": 653,
      "tatem_": 654,
      "ipsis_": 655,
      "populi_": 656,
      "divina_": 657,
      "commune_": 658,
      "dis_": 659,
      "alias_": 660,
      "tota_": 661,
      "tuam_": 662,
      "ie_": 663,
      "des_": 664,
      "pertinet_": 665,
      "huic_": 666,
      "patre_": 667,
      "dicunt_": 668,
      "vide_": 669,
      "quippe_": 670,
      "va_": 671,
      "vere_": 672,
      "eas_": 673,
      "tertio_": 674,
      "fratres_": 675,
      "iste_": 676,
      "animo_": 677,
      "en_": 678,
      "psal_": 679,
      "similiter_": 680,
      "scriptum_": 681,
      "by_": 682,
      "sumus_": 683,
      "nostris_": 684,
      "locus_": 685,
      "sanctus_": 686,
      "tuo_": 687,
      "genere_": 688,
      "ensis_": 689,
      "cis_": 690,
      "hominibus_": 691,
      "terrae_": 692,
      "multi_": 693,
      "liber_": 694,
      "viri_": 695,
      "verunt_": 696,
      "dam_": 697,
      "essent_": 698,
      "postquam_": 699,
      "potentia_": 700,
      "statim_": 701,
      "via_": 702,
      "tanquam_": 703,
      "mala_": 704,
      "hodie_": 705,
      "art_": 706,
      "apostolus_": 707,
      "mei_": 708,
      "xii_": 709,
      "annos_": 710,
      "potuit_": 711,
      "iae_": 712,
      "fuerunt_": 713,
      "domus_": 714,
      "ora_": 715,
      "uni_": 716,
      "illos_": 717,
      "medio_": 718,
      "lingua_": 719,
      "nostrum_": 720,
      "gloria_": 721,
      "animae_": 722,
      "31_": 723,
      "orem_": 724,
      "multo_": 725,
      "animi_": 726,
      "sane_": 727,
      "primus_": 728,
      "animam_": 729,
      "annum_": 730,
      "fe_": 731,
      "ntibus_": 732,
      "bantur_": 733,
      "aliquo_": 734,
      "dat_": 735,
      "materia_": 736,
      "dicat_": 737,
      "verbo_": 738,
      "dicta_": 739,
      "ar_": 740,
      "anni_": 741,
      "vult_": 742,
      "usus_": 743,
      "<_": 744,
      "meo_": 745,
      "isti_": 746,
      "ntem_": 747,
      "vers_": 748,
      "boni_": 749,
      "nostro_": 750,
      "etsi_": 751,
      "xv_": 752,
      "noster_": 753,
      "rit_": 754,
      "populo_": 755,
      "dicuntur_": 756,
      "episcopus_": 757,
      "locis_": 758,
      "species_": 759,
      "urbe_": 760,
      "aliquando_": 761,
      "legem_": 762,
      "temporis_": 763,
      "ipsam_": 764,
      "infra_": 765,
      "nomina_": 766,
      "meam_": 767,
      "haud_": 768,
      "numero_": 769,
      "spiritu_": 770,
      "mox_": 771,
      "lex_": 772,
      "facile_": 773,
      "fides_": 774,
      "spiritum_": 775,
      "lia_": 776,
      "male_": 777,
      "talis_": 778,
      "virtute_": 779,
      "digitized_": 780,
      "israel_": 781,
      "juxta_": 782,
      "provincia_": 783,
      "..._": 784,
      "huiusmodi_": 785,
      "ones_": 786,
      "entur_": 787,
      "fuerat_": 788,
      "urbem_": 789,
      "33_": 790,
      "and_": 791,
      "aqua_": 792,
      "eris_": 793,
      "dico_": 794,
      "alius_": 795,
      "corde_": 796,
      "minime_": 797,
      "domum_": 798,
      "tanta_": 799,
      "35_": 800,
      "tatis_": 801,
      "tionem_": 802,
      "nullo_": 803,
      "cs_": 804,
      "dem_": 805,
      "veritate_": 806,
      "tia_": 807,
      "regem_": 808,
      "longe_": 809,
      "meus_": 810,
      "oris_": 811,
      "tot_": 812,
      ".._": 813,
      "tertium_": 814,
      "bello_": 815,
      "ecclesiam_": 816,
      "intellectus_": 817,
      "tanto_": 818,
      "melius_": 819,
      "joa_": 820,
      "unius_": 821,
      "ot_": 822,
      "alterum_": 823,
      "legis_": 824,
      "ov_": 825,
      "romani_": 826,
      "extra_": 827,
      "adversus_": 828,
      "bonis_": 829,
      "habeat_": 830,
      "int_": 831,
      "ani_": 832,
      "corpora_": 833,
      "par_": 834,
      "40_": 835,
      "iter_": 836,
      "tamquam_": 837,
      "ari_": 838,
      "italia_": 839,
      "ordine_": 840,
      "ibid_": 841,
      "unam_": 842,
      "quatuor_": 843,
      "ntis_": 844,
      "formam_": 845,
      "sola_": 846,
      "urbis_": 847,
      "lus_": 848,
      "summa_": 849,
      "mare_": 850,
      "significat_": 851,
      "32_": 852,
      "sententiam_": 853,
      "persona_": 854,
      "tribus_": 855,
      "tuis_": 856,
      "xiv_": 857,
      "vix_": 858,
      "sancto_": 859,
      "quidquid_": 860,
      "xit_": 861,
      "amplius_": 862,
      "mentis_": 863,
      "peccata_": 864,
      "populus_": 865,
      "morte_": 866,
      "34_": 867,
      "ha_": 868,
      "loquitur_": 869,
      "tandem_": 870,
      "plures_": 871,
      "alis_": 872,
      "nondum_": 873,
      "sus_": 874,
      "ordinem_": 875,
      "iure_": 876,
      "bitur_": 877,
      "tos_": 878,
      "quanto_": 879,
      "habuit_": 880,
      "rat_": 881,
      "generis_": 882,
      "multum_": 883,
      "ua_": 884,
      "malo_": 885,
      "vox_": 886,
      "paulus_": 887,
      "augustinus_": 888,
      "cura_": 889,
      "sensus_": 890,
      "toto_": 891,
      "utique_": 892,
      "paulo_": 893,
      "bono_": 894,
      "coram_": 895,
      "tuae_": 896,
      "gloriam_": 897,
      "alium_": 898,
      "altera_": 899,
      "nullus_": 900,
      "intra_": 901,
      "diebus_": 902,
      "solus_": 903,
      "nullum_": 904,
      "principium_": 905,
      "cus_": 906,
      "dit_": 907,
      "libri_": 908,
      "ponit_": 909,
      "ria_": 910,
      "nostrae_": 911,
      "nunquam_": 912,
      "ps_": 913,
      "codd_": 914,
      "arma_": 915,
      "diu_": 916,
      "velut_": 917,
      "auctoritate_": 918,
      "fine_": 919,
      "quamquam_": 920,
      "dare_": 921,
      "atis_": 922,
      "36_": 923,
      "sanctum_": 924,
      "set_": 925,
      "suas_": 926,
      "fiat_": 927,
      "50_": 928,
      "peccato_": 929,
      "namque_": 930,
      "xiii_": 931,
      "constat_": 932,
      "vim_": 933,
      "quinque_": 934,
      "secunda_": 935,
      "salutem_": 936,
      "dicimus_": 937,
      "propria_": 938,
      "ignis_": 939,
      "media_": 940,
      "amus_": 941,
      "pag_": 942,
      "tae_": 943,
      "vestra_": 944,
      "tria_": 945,
      "}_": 946,
      "fuerint_": 947,
      "mortis_": 948,
      "duas_": 949,
      "regni_": 950,
      "verit_": 951,
      "duobus_": 952,
      "ebat_": 953,
      "hos_": 954,
      "proprie_": 955,
      "ali_": 956,
      "habebat_": 957,
      "virtutem_": 958,
      "mm_": 959,
      "dus_": 960,
      "homine_": 961,
      "ira_": 962,
      "finis_": 963,
      "david_": 964,
      "pe_": 965,
      "ini_": 966,
      "actu_": 967,
      "ς_": 968,
      "lam_": 969,
      "tor_": 970,
      "porro_": 971,
      "populum_": 972,
      "gentes_": 973,
      "numquam_": 974,
      "data_": 975,
      "atus_": 976,
      "be_": 977,
      "dc_": 978,
      "magno_": 979,
      "civitatis_": 980,
      "ata_": 981,
      "carnis_": 982,
      "dixi_": 983,
      "alterius_": 984,
      "oculos_": 985,
      "totius_": 986,
      "eret_": 987,
      "saeculo_": 988,
      "more_": 989,
      "oppidum_": 990,
      "rus_": 991,
      "rentur_": 992,
      "petrus_": 993,
      "potestatem_": 994,
      "litteris_": 995,
      "donec_": 996,
      "accepit_": 997,
      "romae_": 998,
      "versus_": 999,
      "tim_": 1000,
      "imo_": 1001,
      "nova_": 1002,
      "ire_": 1003,
      "has_": 1004,
      "praefecturae_": 1005,
      "papa_": 1006,
      "aliquod_": 1007,
      "alter_": 1008,
      "consilium_": 1009,
      "viam_": 1010,
      "magnum_": 1011,
      "potestate_": 1012,
      "uo_": 1013,
      "tit_": 1014,
      "45_": 1015,
      "au_": 1016,
      "situm_": 1017,
      "scripta_": 1018,
      "vo_": 1019,
      "virtutis_": 1020,
      "actum_": 1021,
      "mundo_": 1022,
      "animum_": 1023,
      "ram_": 1024,
      "sex_": 1025,
      "po_": 1026,
      "sermo_": 1027,
      "nc_": 1028,
      "eiusdem_": 1029,
      "bi_": 1030,
      "nempe_": 1031,
      "voluntas_": 1032,
      "scriptura_": 1033,
      "37_": 1034,
      "endum_": 1035,
      "vs_": 1036,
      "opere_": 1037,
      "nostram_": 1038,
      "nti_": 1039,
      "videntur_": 1040,
      "ianuarii_": 1041,
      "voce_": 1042,
      "cicero_": 1043,
      "nibus_": 1044,
      "mali_": 1045,
      "ch_": 1046,
      "consilio_": 1047,
      "medium_": 1048,
      "mente_": 1049,
      "quibusdam_": 1050,
      "amor_": 1051,
      "tt_": 1052,
      "jus_": 1053,
      "44_": 1054,
      "oculis_": 1055,
      "horum_": 1056,
      "nae_": 1057,
      "amore_": 1058,
      "proprium_": 1059,
      "1": 1060,
      "peccati_": 1061,
      "sese_": 1062,
      "~_": 1063,
      "rium_": 1064,
      "fortasse_": 1065,
      "prope_": 1066,
      "domo_": 1067,
      "valde_": 1068,
      "principio_": 1069,
      "ep_": 1070,
      "scripsit_": 1071,
      "deos_": 1072,
      "usum_": 1073,
      "earum_": 1074,
      "lio_": 1075,
      "cod_": 1076,
      "imperator_": 1077,
      ">_": 1078,
      "possint_": 1079,
      "substantia_": 1080,
      "videlicet_": 1081,
      "faciunt_": 1082,
      "sq_": 1083,
      "sanctorum_": 1084,
      "frater_": 1085,
      "iuxta_": 1086,
      "urbs_": 1087,
      "partibus_": 1088,
      "uel_": 1089,
      "signum_": 1090,
      "decem_": 1091,
      "42_": 1092,
      "aliam_": 1093,
      "hujusmodi_": 1094,
      "septem_": 1095,
      "aliquam_": 1096,
      "italiae_": 1097,
      "ipsos_": 1098,
      "diximus_": 1099,
      "belli_": 1100,
      "filios_": 1101,
      "oi_": 1102,
      "mini_": 1103,
      "scientia_": 1104,
      "sio_": 1105,
      "voluit_": 1106,
      ".^_": 1107,
      "loci_": 1108,
      "ultra_": 1109,
      "ordo_": 1110,
      "leges_": 1111,
      "quæ_": 1112,
      "caro_": 1113,
      "manibus_": 1114,
      "cam_": 1115,
      "ss_": 1116,
      "fa_": 1117,
      "datum_": 1118,
      "singulis_": 1119,
      "prae_": 1120,
      "veritatem_": 1121,
      "utrumque_": 1122,
      "quoad_": 1123,
      "cit_": 1124,
      "aa_": 1125,
      "propterea_": 1126,
      "sc_": 1127,
      "xvi_": 1128,
      "meis_": 1129,
      "possumus_": 1130,
      "exemplum_": 1131,
      "mater_": 1132,
      "apparet_": 1133,
      "duos_": 1134,
      "car_": 1135,
      "voluntate_": 1136,
      "gratiae_": 1137,
      "speciem_": 1138,
      "ndam_": 1139,
      "atio_": 1140,
      "sensu_": 1141,
      "aliorum_": 1142,
      "pa_": 1143,
      "suorum_": 1144,
      "quse_": 1145,
      "ordinis_": 1146,
      "poterat_": 1147,
      "libris_": 1148,
      "judicium_": 1149,
      "capite_": 1150,
      "senatus_": 1151,
      "tium_": 1152,
      "praecipue_": 1153,
      "virum_": 1154,
      "mors_": 1155,
      "bunt_": 1156,
      "sapientia_": 1157,
      "absque_": 1158,
      "49_": 1159,
      "nota_": 1160,
      "quemadmodum_": 1161,
      "voluntatem_": 1162,
      "rursus_": 1163,
      "lur_": 1164,
      "poena_": 1165,
      "iones_": 1166,
      "huc_": 1167,
      "verbi_": 1168,
      "fed_": 1169,
      "humana_": 1170,
      "homini_": 1171,
      "ejusdem_": 1172,
      "sacra_": 1173,
      "tertia_": 1174,
      "parum_": 1175,
      "publica_": 1176,
      "illic_": 1177,
      "pariter_": 1178,
      "carnem_": 1179,
      "anus_": 1180,
      "signa_": 1181,
      "inquantum_": 1182,
      "luc_": 1183,
      "entes_": 1184,
      "0": 1185,
      "temporibus_": 1186,
      "patri_": 1187,
      "antea_": 1188,
      "illorum_": 1189,
      "ft_": 1190,
      "quodam_": 1191,
      "ssime_": 1192,
      "sqq_": 1193,
      "semel_": 1194,
      "alibi_": 1195,
      "solis_": 1196,
      "misit_": 1197,
      "hus_": 1198,
      "cio_": 1199,
      "ite_": 1200,
      "ces_": 1201,
      "videatur_": 1202,
      "imperium_": 1203,
      "era_": 1204,
      "tempora_": 1205,
      "atum_": 1206,
      "pacem_": 1207,
      "divinae_": 1208,
      "nr_": 1209,
      "38_": 1210,
      "merito_": 1211,
      "rio_": 1212,
      "tionis_": 1213,
      "agit_": 1214,
      "angeli_": 1215,
      "manifestum_": 1216,
      "etenim_": 1217,
      "officium_": 1218,
      "43_": 1219,
      "fuisset_": 1220,
      "é_": 1221,
      "qu6d_": 1222,
      "agere_": 1223,
      "isset_": 1224,
      "pedes_": 1225,
      "mens_": 1226,
      "€_": 1227,
      "2": 1228,
      "vocem_": 1229,
      "ntia_": 1230,
      "ν_": 1231,
      "membra_": 1232,
      "vulgo_": 1233,
      "tuus_": 1234,
      "46_": 1235,
      "ensi_": 1236,
      "ati_": 1237,
      "rege_": 1238,
      "nimis_": 1239,
      "\\u_": 1240,
      "cr_": 1241,
      "modi_": 1242,
      "antequam_": 1243,
      "ib_": 1244,
      "loca_": 1245,
      "solet_": 1246,
      "libus_": 1247,
      "ano_": 1248,
      "veritas_": 1249,
      "datur_": 1250,
      "maria_": 1251,
      "actio_": 1252,
      "plura_": 1253,
      "cordis_": 1254,
      "oribus_": 1255,
      "fore_": 1256,
      "petri_": 1257,
      "prout_": 1258,
      "ic_": 1259,
      "41_": 1260,
      "sanguine_": 1261,
      "dicam_": 1262,
      "operibus_": 1263,
      "quatenus_": 1264,
      "simpliciter_": 1265,
      "totam_": 1266,
      "quisque_": 1267,
      "quarum_": 1268,
      "nocte_": 1269,
      "ica_": 1270,
      "specie_": 1271,
      "prorsus_": 1272,
      "ponitur_": 1273,
      "ethic_": 1274,
      "invicem_": 1275,
      "videre_": 1276,
      "convenit_": 1277,
      "sacramentum_": 1278,
      "ibidem_": 1279,
      "casu_": 1280,
      "du_": 1281,
      "regno_": 1282,
      "istis_": 1283,
      "civitate_": 1284,
      "iudicium_": 1285,
      "ms_": 1286,
      "rc_": 1287,
      "malis_": 1288,
      "39_": 1289,
      ".—_": 1290,
      "posuit_": 1291,
      "legitur_": 1292,
      "48_": 1293,
      "cumque_": 1294,
      "xx_": 1295,
      "iiae_": 1296,
      "pr": 1297,
      "veritatis_": 1298,
      "ul_": 1299,
      "z": 1300,
      "viro_": 1301,
      "usu_": 1302,
      "lium_": 1303,
      "consul_": 1304,
      "nsis_": 1305,
      "+_": 1306,
      "plerumque_": 1307,
      "xi": 1308,
      "ero_": 1309,
      "initio_": 1310,
      "iª_": 1311,
      "circiter_": 1312,
      "mundum_": 1313,
      "plane_": 1314,
      "endo_": 1315,
      "castra_": 1316,
      "episcopo_": 1317,
      "diceret_": 1318,
      "fructus_": 1319,
      "episcopi_": 1320,
      "bile_": 1321,
      "princeps_": 1322,
      "vidit_": 1323,
      "dicatur_": 1324,
      "cj_": 1325,
      "armis_": 1326,
      "augusti_": 1327,
      "bonorum_": 1328,
      "go_": 1329,
      "jesu_": 1330,
      "ate_": 1331,
      "55_": 1332,
      "operis_": 1333,
      "epistola_": 1334,
      "romana_": 1335,
      "poterit_": 1336,
      "praesertim_": 1337,
      "tali_": 1338,
      "ceteris_": 1339,
      "francicum_": 1340,
      "reg_": 1341,
      "beati_": 1342,
      "qc_": 1343,
      "oni_": 1344,
      "l": 1345,
      "rationis_": 1346,
      "estis_": 1347,
      "ho_": 1348,
      "coepit_": 1349,
      "cuncta_": 1350,
      "maxima_": 1351,
      "patres_": 1352,
      "regi_": 1353,
      "das_": 1354,
      "litteras_": 1355,
      "ame_": 1356,
      "4": 1357,
      "multos_": 1358,
      "mentem_": 1359,
      "numerus_": 1360,
      "dux_": 1361,
      "qu": 1362,
      "47_": 1363,
      "sancta_": 1364,
      "tale_": 1365,
      "verat_": 1366,
      "magni_": 1367,
      "spes_": 1368,
      "manum_": 1369,
      "caesar_": 1370,
      "peccatorum_": 1371,
      "ir_": 1372,
      "facto_": 1373,
      "nominis_": 1374,
      "cognitio_": 1375,
      "cae_": 1376,
      "ias_": 1377,
      "honorem_": 1378,
      "doctrina_": 1379,
      "th_": 1380,
      "ina_": 1381,
      "ls_": 1382,
      "google_": 1383,
      "scd_": 1384,
      "stis_": 1385,
      "vid_": 1386,
      "auctor_": 1387,
      "principes_": 1388,
      "he_": 1389,
      "civitas_": 1390,
      "bilis_": 1391,
      "aquae_": 1392,
      "iuris_": 1393,
      "quandoque_": 1394,
      "fiunt_": 1395,
      "sensum_": 1396,
      "procul_": 1397,
      "qualis_": 1398,
      "unitatibus_": 1399,
      "mum_": 1400,
      "habetur_": 1401,
      "scire_": 1402,
      "immo_": 1403,
      "mari_": 1404,
      "propheta_": 1405,
      "ij": 1406,
      "saeculi_": 1407,
      "poeta_": 1408,
      "caelo_": 1409,
      "effectus_": 1410,
      "exercitus_": 1411,
      "faciat_": 1412,
      "virtutes_": 1413,
      "eat_": 1414,
      "municipium_": 1415,
      "publicae_": 1416,
      "sole_": 1417,
      "s": 1418,
      "ubique_": 1419,
      "ssent_": 1420,
      "zi": 1421,
      "st_": 1422,
      "animus_": 1423,
      "interdum_": 1424,
      "ioannes_": 1425,
      "faciem_": 1426,
      "saltem_": 1427,
      "nia_": 1428,
      "nonne_": 1429,
      "novi_": 1430,
      "ana_": 1431,
      "ori_": 1432,
      "debent_": 1433,
      "aliquem_": 1434,
      "onibus_": 1435,
      "prò_": 1436,
      "docet_": 1437,
      "maior_": 1438,
      "lumen_": 1439,
      "officio_": 1440,
      "videri_": 1441,
      ",&_": 1442,
      "mulier_": 1443,
      "numerum_": 1444,
      "mense_": 1445,
      "lii": 1446,
      "romanus_": 1447,
      "5": 1448,
      "appellantur_": 1449,
      "verborum_": 1450,
      "lu_": 1451,
      "sacerdos_": 1452,
      "novum_": 1453,
      "ipsorum_": 1454,
      "cl_": 1455,
      "futurum_": 1456,
      "gentium_": 1457,
      "nil_": 1458,
      "itas_": 1459,
      "debeat_": 1460,
      "motu_": 1461,
      "scit_": 1462,
      "testimonium_": 1463,
      "rius_": 1464,
      "angelus_": 1465,
      "bonus_": 1466,
      "studio_": 1467,
      "cia_": 1468,
      "imperii_": 1469,
      "templum_": 1470,
      "civitatem_": 1471,
      "volunt_": 1472,
      "quaestio_": 1473,
      "necessitate_": 1474,
      "fortuna_": 1475,
      "culpa_": 1476,
      "naturalis_": 1477,
      "solem_": 1478,
      "facti_": 1479,
      "sol_": 1480,
      "quadam_": 1481,
      "numquid_": 1482,
      "primi_": 1483,
      "ulpianus_": 1484,
      "pi_": 1485,
      "ts_": 1486,
      "gregorius_": 1487,
      "jerusalem_": 1488,
      "spem_": 1489,
      "emus_": 1490,
      "magister_": 1491,
      "invenitur_": 1492,
      "su_": 1493,
      "primis_": 1494,
      "meae_": 1495,
      "lc_": 1496,
      "motum_": 1497,
      "deorum_": 1498,
      "pluribus_": 1499,
      "iudicio_": 1500,
      "voluntatis_": 1501,
      "ou_": 1502,
      "pertinent_": 1503,
      "apostoli_": 1504,
      "à_": 1505,
      "cere_": 1506,
      "prior_": 1507,
      "ebant_": 1508,
      "tr": 1509,
      "reges_": 1510,
      ".": 1511,
      "interim_": 1512,
      "potestas_": 1513,
      "funt_": 1514,
      "caelum_": 1515,
      "quondam_": 1516,
      "respondit_": 1517,
      "xix_": 1518,
      "ntium_": 1519,
      "terrarum_": 1520,
      "sanctae_": 1521,
      "similitudinem_": 1522,
      "opinio_": 1523,
      "tales_": 1524,
      "t": 1525,
      "ao": 1526,
      "uxorem_": 1527,
      "2012_": 1528,
      "penitus_": 1529,
      "nescio_": 1530,
      "60_": 1531,
      "cta_": 1532,
      "servus_": 1533,
      "misericordia_": 1534,
      "filiis_": 1535,
      "aquam_": 1536,
      "epi_": 1537,
      "torum_": 1538,
      "magnus_": 1539,
      "spe_": 1540,
      "ribus_": 1541,
      "accipere_": 1542,
      "jure_": 1543,
      "necessaria_": 1544,
      "tiam_": 1545,
      "ulla_": 1546,
      "ndis_": 1547,
      "sedes_": 1548,
      "romam_": 1549,
      "memoria_": 1550,
      "jesus_": 1551,
      "gi_": 1552,
      "milites_": 1553,
      "–_": 1554,
      "frustra_": 1555,
      "loqui_": 1556,
      "imperio_": 1557,
      "ente_": 1558,
      "endi_": 1559,
      "isto_": 1560,
      "avit_": 1561,
      "debere_": 1562,
      "dictis_": 1563,
      "judicio_": 1564,
      "pra_": 1565,
      "intelligi_": 1566,
      "respondeo_": 1567,
      "quattuor_": 1568,
      "nata_": 1569,
      "ferre_": 1570,
      "xvii_": 1571,
      "causae_": 1572,
      "rii_": 1573,
      "der_": 1574,
      "pacis_": 1575,
      "sermone_": 1576,
      "primam_": 1577,
      "vm_": 1578,
      "ec_": 1579,
      "communi_": 1580,
      "velle_": 1581,
      "magnitudinem_": 1582,
      "ses_": 1583,
      "personae_": 1584,
      "intellectum_": 1585,
      "genera_": 1586,
      "causis_": 1587,
      "dubio_": 1588,
      "cos_": 1589,
      "possent_": 1590,
      "job_": 1591,
      "essentia_": 1592,
      "cem_": 1593,
      "im": 1594,
      "lux_": 1595,
      "apostolica_": 1596,
      "50": 1597,
      "ba_": 1598,
      "partim_": 1599,
      "not_": 1600,
      "edd_": 1601,
      "puto_": 1602,
      "modis_": 1603,
      "profecto_": 1604,
      "quanta_": 1605,
      "uum_": 1606,
      "auxilium_": 1607,
      "habens_": 1608,
      "arte_": 1609,
      "at": 1610,
      "coelo_": 1611,
      "xo": 1612,
      "tf": 1613,
      "onum_": 1614,
      "maris_": 1615,
      "3": 1616,
      "talia_": 1617,
      "solo_": 1618,
      "simile_": 1619,
      "dio_": 1620,
      "ssima_": 1621,
      "st": 1622,
      "similis_": 1623,
      "ale_": 1624,
      "causas_": 1625,
      "mis_": 1626,
      "statu_": 1627,
      ".-_": 1628,
      "idcirco_": 1629,
      "eus_": 1630,
      "proinde_": 1631,
      "51_": 1632,
      "ula_": 1633,
      "54_": 1634,
      "uis_": 1635,
      "passio_": 1636,
      "2016_": 1637,
      "talem_": 1638,
      "erint_": 1639,
      "demum_": 1640,
      "exemplo_": 1641,
      "erga_": 1642,
      "honore_": 1643,
      "dixerunt_": 1644,
      "leo_": 1645,
      "nullam_": 1646,
      "ior_": 1647,
      "ka": 1648,
      "diversa_": 1649,
      "^": 1650,
      "altero_": 1651,
      "iit_": 1652,
      "beatus_": 1653,
      "formae_": 1654,
      "philosophus_": 1655,
      "vol_": 1656,
      "vum_": 1657,
      "contingit_": 1658,
      "dere_": 1659,
      "52_": 1660,
      "soli_": 1661,
      "pin": 1662,
      "justitia_": 1663,
      "mundus_": 1664,
      "corr_": 1665,
      "amoris_": 1666,
      "ante": 1667,
      "debemus_": 1668,
      "od_": 1669,
      "anum_": 1670,
      "humanae_": 1671,
      "incipit_": 1672,
      "fama_": 1673,
      "dos_": 1674,
      "6": 1675,
      "ku": 1676,
      "oe_": 1677,
      "peccatis_": 1678,
      "lucem_": 1679,
      "eli": 1680,
      "pp_": 1681,
      "legatus_": 1682,
      "com_": 1683,
      "exempla_": 1684,
      "ee_": 1685,
      "itis_": 1686,
      "tii": 1687,
      "bella_": 1688,
      "52": 1689,
      "quarto_": 1690,
      "agitur_": 1691,
      "rae_": 1692,
      "impossibile_": 1693,
      "58_": 1694,
      "ι": 1695,
      "act_": 1696,
      "videt_": 1697,
      "tt": 1698,
      "hostes_": 1699,
      "xviii_": 1700,
      "cic_": 1701,
      "vires_": 1702,
      "ras_": 1703,
      "militum_": 1704,
      "hae_": 1705,
      "80_": 1706,
      "fl_": 1707,
      "nulli_": 1708,
      "pn": 1709,
      "vestris_": 1710,
      "solent_": 1711,
      "vivere_": 1712,
      "salutis_": 1713,
      "for_": 1714,
      "rationes_": 1715,
      "cc_": 1716,
      "editio_": 1717,
      "dae_": 1718,
      "haberet_": 1719,
      "certum_": 1720,
      "cat_": 1721,
      "add_": 1722,
      "sedis_": 1723,
      "refert_": 1724,
      "nuper_": 1725,
      "las_": 1726,
      "necessarium_": 1727,
      "venire_": 1728,
      "scio_": 1729,
      "procedit_": 1730,
      "operam_": 1731,
      "il": 1732,
      "inquam_": 1733,
      "accidens_": 1734,
      "virtutum_": 1735,
      "ignem_": 1736,
      "contrarium_": 1737,
      "7": 1738,
      "utraque_": 1739,
      "hostium_": 1740,
      "terris_": 1741,
      "61": 1742,
      "uni": 1743,
      "®_": 1744,
      "iv": 1745,
      "viginti_": 1746,
      "centum_": 1747,
      "gra": 1748,
      "gar": 1749,
      "filia_": 1750,
      "materiam_": 1751,
      "gloriae_": 1752,
      "gratias_": 1753,
      "aliae_": 1754,
      "certa_": 1755,
      "milia_": 1756,
      "itate_": 1757,
      "viris_": 1758,
      "p": 1759,
      "53_": 1760,
      "incolae_": 1761,
      "pace_": 1762,
      "legibus_": 1763,
      "eandem_": 1764,
      "sin_": 1765,
      "lius_": 1766,
      "nequaquam_": 1767,
      "ll_": 1768,
      "modus_": 1769,
      "paucis_": 1770,
      "sanctis_": 1771,
      "urus_": 1772,
      "bri": 1773,
      "orbis_": 1774,
      "scribit_": 1775,
      "ssimum_": 1776,
      "veri_": 1777,
      "intelligitur_": 1778,
      "lectio_": 1779,
      "misericordiam_": 1780,
      "aetate_": 1781,
      "minor_": 1782,
      "duae_": 1783,
      "cou": 1784,
      "propositum_": 1785,
      "hs_": 1786,
      "ana": 1787,
      "oli": 1788,
      "pax_": 1789,
      "ler_": 1790,
      "romano_": 1791,
      "habemus_": 1792,
      "communis_": 1793,
      "oi": 1794,
      "futura_": 1795,
      "divinis_": 1796,
      "13": 1797,
      "tj": 1798,
      "posita_": 1799,
      "alem_": 1800,
      "nu_": 1801,
      "habeant_": 1802,
      "poenam_": 1803,
      "linguae_": 1804,
      "manet_": 1805,
      "familiae_": 1806,
      "ά": 1807,
      "nl_": 1808,
      "ele": 1809,
      "57_": 1810,
      "urum_": 1811,
      "comes_": 1812,
      "cm": 1813,
      "pecuniam_": 1814,
      "monte_": 1815,
      "mores_": 1816,
      "falsum_": 1817,
      "nius_": 1818,
      "ο": 1819,
      "cet_": 1820,
      "bc": 1821,
      "bro": 1822,
      "vocatur_": 1823,
      "hora_": 1824,
      "servi_": 1825,
      "64_": 1826,
      "ao_": 1827,
      "dubium_": 1828,
      "video_": 1829,
      "enda_": 1830,
      "iin": 1831,
      "ans_": 1832,
      "romanis_": 1833,
      "gentibus_": 1834,
      "eidem_": 1835,
      "git_": 1836,
      "patria_": 1837,
      "panis_": 1838,
      "exi": 1839,
      "65_": 1840,
      "puta_": 1841,
      "σ": 1842,
      "qnod_": 1843,
      "summo_": 1844,
      "aeternum_": 1845,
      "sanguinem_": 1846,
      "etiamsi_": 1847,
      "dari_": 1848,
      "cti": 1849,
      "é": 1850,
      "mirum_": 1851,
      "dii_": 1852,
      "coelum_": 1853,
      "vt_": 1854,
      "videmus_": 1855,
      "istam_": 1856,
      "ln": 1857,
      "matris_": 1858,
      "vinum_": 1859,
      "tc": 1860,
      "credo_": 1861,
      "simus_": 1862,
      "osa_": 1863,
      "cx_": 1864,
      "praecepta_": 1865,
      "je_": 1866,
      "g": 1867,
      "inus_": 1868,
      "alteri_": 1869,
      "na": 1870,
      "47": 1871,
      "creatura_": 1872,
      "54": 1873,
      "naturaliter_": 1874,
      "major_": 1875,
      "diligenter_": 1876,
      "libros_": 1877,
      "iudices_": 1878,
      "che_": 1879,
      "fii": 1880,
      "ros_": 1881,
      "late_": 1882,
      "personam_": 1883,
      "insula_": 1884,
      "habes_": 1885,
      "fri": 1886,
      "ctus_": 1887,
      "alexander_": 1888,
      "plena_": 1889,
      "saepius_": 1890,
      "articulus_": 1891,
      "locutus_": 1892,
      "praeses_": 1893,
      "jn": 1894,
      "sali": 1895,
      "natum_": 1896,
      "habitus_": 1897,
      "casus_": 1898,
      "ctum_": 1899,
      "aliqui_": 1900,
      "effectum_": 1901,
      "buntur_": 1902,
      "pecunia_": 1903,
      "mss_": 1904,
      "superius_": 1905,
      "maii_": 1906,
      "56_": 1907,
      "substantiam_": 1908,
      "librum_": 1909,
      "luce_": 1910,
      "intelligere_": 1911,
      "dona_": 1912,
      "diversis_": 1913,
      "pcr_": 1914,
      "quod": 1915,
      "am": 1916,
      "70_": 1917,
      "potentiam_": 1918,
      "fratrem_": 1919,
      "amorem_": 1920,
      "oa": 1921,
      "divinam_": 1922,
      "57": 1923,
      "zo": 1924,
      "familia_": 1925,
      "α": 1926,
      "magnam_": 1927,
      "uxor_": 1928,
      "justitiam_": 1929,
      "if_": 1930,
      "novo_": 1931,
      "legimus_": 1932,
      "nr": 1933,
      "hn": 1934,
      "ssi": 1935,
      "ng_": 1936,
      "it": 1937,
      "vestrae_": 1938,
      "iim_": 1939,
      "plurimum_": 1940,
      "cunctis_": 1941,
      "ve": 1942,
      "occasio_": 1943,
      "facies_": 1944,
      "63": 1945,
      "tc_": 1946,
      "scientiam_": 1947,
      "itatem_": 1948,
      "velit_": 1949,
      "semi": 1950,
      "kal_": 1951,
      "viros_": 1952,
      "rae": 1953,
      "generatio_": 1954,
      "essentiam_": 1955,
      "iti": 1956,
      "dicti_": 1957,
      "ts": 1958,
      "fol_": 1959,
      "munus_": 1960,
      "principalis_": 1961,
      "entis_": 1962,
      "ke": 1963,
      "gradus_": 1964,
      "quartum_": 1965,
      "illas_": 1966,
      "tar": 1967,
      "det_": 1968,
      "caeli_": 1969,
      "id": 1970,
      "nt": 1971,
      "ndus_": 1972,
      "que": 1973,
      "summum_": 1974,
      "ft": 1975,
      "virgo_": 1976,
      "ot": 1977,
      "provinciae_": 1978,
      "dans_": 1979,
      "fti": 1980,
      "x": 1981,
      "intentio_": 1982,
      "bas_": 1983,
      "ee": 1984,
      "placet_": 1985,
      "subito_": 1986,
      "proceditur_": 1987,
      "59_": 1988,
      "liceat_": 1989,
      "fructum_": 1990,
      "abi": 1991,
      "memoriam_": 1992,
      "statum_": 1993,
      "lc": 1994,
      "graece_": 1995,
      "lii_": 1996,
      "aris_": 1997,
      "duodecim_": 1998,
      "civitates_": 1999,
      "religionis_": 2000,
      "qni_": 2001,
      "aa": 2002,
      "fan": 2003,
      "nostros_": 2004,
      "mentum_": 2005,
      "credere_": 2006,
      "non": 2007,
      "av": 2008,
      "cli": 2009,
      "yi": 2010,
      "xxi_": 2011,
      "tius_": 2012,
      "orationem_": 2013,
      "falsa_": 2014,
      "ceterum_": 2015,
      "dt": 2016,
      "dilectio_": 2017,
      "tuos_": 2018,
      "singula_": 2019,
      "lae_": 2020,
      "tr_": 2021,
      "legi_": 2022,
      "nm": 2023,
      "tm": 2024,
      "quisquam_": 2025,
      "utroque_": 2026,
      "jo": 2027,
      "cognitionem_": 2028,
      "64": 2029,
      "puer_": 2030,
      "utriusque_": 2031,
      "ino": 2032,
      "ales_": 2033,
      "lla_": 2034,
      "deu": 2035,
      "audire_": 2036,
      "adam_": 2037,
      "orationis_": 2038,
      "ol_": 2039,
      "ionibus_": 2040,
      "totus_": 2041,
      "mos_": 2042,
      "m": 2043,
      "vo": 2044,
      "μ": 2045,
      "tl": 2046,
      "sacerdotes_": 2047,
      "diei_": 2048,
      "π": 2049,
      "matrimonium_": 2050,
      "qi": 2051,
      "je": 2052,
      "ac": 2053,
      "viribus_": 2054,
      "esl_": 2055,
      "uerunt_": 2056,
      "66_": 2057,
      "status_": 2058,
      "episcopum_": 2059,
      "mille_": 2060,
      "fecerunt_": 2061,
      "exercitu_": 2062,
      "xa_": 2063,
      "partis_": 2064,
      "consistit_": 2065,
      "vestrum_": 2066,
      "dignum_": 2067,
      "sup_": 2068,
      "intus_": 2069,
      "exercitum_": 2070,
      "curam_": 2071,
      "pae": 2072,
      "proprio_": 2073,
      "apostolorum_": 2074,
      "praesens_": 2075,
      "ja": 2076,
      "iio_": 2077,
      "tabula_": 2078,
      "fratribus_": 2079,
      "9": 2080,
      "siquidem_": 2081,
      "vocat_": 2082,
      "evangelio_": 2083,
      "terras_": 2084,
      "positum_": 2085,
      "61_": 2086,
      "bur": 2087,
      "figura_": 2088,
      "cui": 2089,
      "inis_": 2090,
      "trans": 2091,
      "rs_": 2092,
      "periculum_": 2093,
      "latine_": 2094,
      "dn": 2095,
      "sedem_": 2096,
      "gentiles_": 2097,
      "patrum_": 2098,
      "movetur_": 2099,
      "tor": 2100,
      "isi": 2101,
      "doctrinam_": 2102,
      "γ": 2103,
      "14": 2104,
      "ir": 2105,
      "enses_": 2106,
      "boc_": 2107,
      "eh": 2108,
      "aprilis_": 2109,
      "umquam_": 2110,
      "dictus_": 2111,
      "ya": 2112,
      "foret_": 2113,
      "85_": 2114,
      "pati_": 2115,
      "cre_": 2116,
      "ar": 2117,
      "ol": 2118,
      "possum_": 2119,
      "mt_": 2120,
      "romanae_": 2121,
      "donum_": 2122,
      "dolor_": 2123,
      "infinitum_": 2124,
      "ela": 2125,
      "aetatis_": 2126,
      "saint_": 2127,
      "dic_": 2128,
      "sita_": 2129,
      "pan": 2130,
      "appellatur_": 2131,
      "ino_": 2132,
      "pari": 2133,
      "aeterna_": 2134,
      "nni": 2135,
      "octobris_": 2136,
      "thi": 2137,
      "romanum_": 2138,
      "ho": 2139,
      "us": 2140,
      "putant_": 2141,
      "66": 2142,
      ".'_": 2143,
      "v": 2144,
      "sii": 2145,
      "acta_": 2146,
      "tm_": 2147,
      "dc": 2148,
      "aug_": 2149,
      "valet_": 2150,
      "romanorum_": 2151,
      "gon": 2152,
      "uti": 2153,
      "dixerat_": 2154,
      "aurum_": 2155,
      "conspectu_": 2156,
      "initium_": 2157,
      "68": 2158,
      "regio_": 2159,
      "77": 2160,
      "fieret_": 2161,
      "eundem_": 2162,
      "æ": 2163,
      "quaeritur_": 2164,
      "moni": 2165,
      "fuerant_": 2166,
      "comitatus_": 2167,
      "sei": 2168,
      "metu_": 2169,
      "dixerit_": 2170,
      "del_": 2171,
      "iri": 2172,
      "agens_": 2173,
      "70": 2174,
      "tra_": 2175,
      "rt_": 2176,
      "montes_": 2177,
      "\u0000_": 2178,
      "quc_": 2179,
      "animos_": 2180,
      "iiii_": 2181,
      "sul": 2182,
      "ρ": 2183,
      "χ": 2184,
      "timore_": 2185,
      "fia": 2186,
      "quaeque_": 2187,
      "historia_": 2188,
      "sta_": 2189,
      "gre": 2190,
      "up": 2191,
      "dei": 2192,
      "substantiae_": 2193,
      "stat_": 2194,
      "angelis_": 2195,
      "dicebat_": 2196,
      "istud_": 2197,
      "oni": 2198,
      "cau": 2199,
      "cula_": 2200,
      "ε": 2201,
      "pertinere_": 2202,
      "lit_": 2203,
      "volo_": 2204,
      "studium_": 2205,
      "moribus_": 2206,
      "fr_": 2207,
      "68_": 2208,
      "respectu_": 2209,
      "60": 2210,
      "contraria_": 2211,
      "quicquid_": 2212,
      "55": 2213,
      "eri_": 2214,
      "fecerit_": 2215,
      "fici": 2216,
      "ban": 2217,
      "that_": 2218,
      "ia": 2219,
      "tv": 2220,
      "xa": 2221,
      "joannes_": 2222,
      "decembris_": 2223,
      "certo_": 2224,
      "ber": 2225,
      "ji_": 2226,
      "romanos_": 2227,
      "53": 2228,
      "sequi_": 2229,
      "accidit_": 2230,
      "nas_": 2231,
      "dl": 2232,
      "ira": 2233,
      "pai": 2234,
      "imago_": 2235,
      "190": 2236,
      "matrem_": 2237,
      "tre": 2238,
      "cd": 2239,
      "cere": 2240,
      "62_": 2241,
      "uf": 2242,
      "80": 2243,
      "ud_": 2244,
      "seipsum_": 2245,
      "lat_": 2246,
      "meridiano_": 2247,
      "em": 2248,
      "tuas_": 2249,
      "uero_": 2250,
      "ov": 2251,
      "ix": 2252,
      "conss_": 2253,
      "ap_": 2254,
      "ij_": 2255,
      "senatu_": 2256,
      "duplex_": 2257,
      "unquam_": 2258,
      "veteres_": 2259,
      "dii": 2260,
      "cives_": 2261,
      "regum_": 2262,
      "ine": 2263,
      "eo": 2264,
      "paene_": 2265,
      "igne_": 2266,
      "eni_": 2267,
      "qualiter_": 2268,
      "jacob_": 2269,
      "her": 2270,
      "d": 2271,
      "timor_": 2272,
      "scientiae_": 2273,
      "sanguinis_": 2274,
      "caesaris_": 2275,
      "principis_": 2276,
      "praemium_": 2277,
      "phi": 2278,
      "ene": 2279,
      "coi": 2280,
      "quoddam_": 2281,
      "electus_": 2282,
      "ara_": 2283,
      "facilius_": 2284,
      "auro_": 2285,
      "aria_": 2286,
      "sacris_": 2287,
      "mane_": 2288,
      "dis": 2289,
      "pauli_": 2290,
      "nimirum_": 2291,
      "pii": 2292,
      "fo": 2293,
      "ns": 2294,
      "ori": 2295,
      "deest_": 2296,
      "56": 2297,
      "ile_": 2298,
      "ct": 2299,
      "tenet_": 2300,
      "annorum_": 2301,
      "glossa_": 2302,
      "alicuius_": 2303,
      "62": 2304,
      "graeci_": 2305,
      "vidi_": 2306,
      "longa_": 2307,
      "nci": 2308,
      "justus_": 2309,
      "illi": 2310,
      "90_": 2311,
      "pari_": 2312,
      "do": 2313,
      "anti": 2314,
      "un": 2315,
      "libet_": 2316,
      "63_": 2317,
      "xxv_": 2318,
      "habitum_": 2319,
      "ron": 2320,
      "diligit_": 2321,
      "sententiae_": 2322,
      "om": 2323,
      "obi": 2324,
      "nti": 2325,
      "die": 2326,
      "spatium_": 2327,
      "undique_": 2328,
      "esi_": 2329,
      "365_": 2330,
      "lxx_": 2331,
      "facie_": 2332,
      "constitit_": 2333,
      "quo": 2334,
      "optime_": 2335,
      "oh": 2336,
      "potes_": 2337,
      "imaginem_": 2338,
      "88": 2339,
      "simo_": 2340,
      "libertatem_": 2341,
      "n": 2342,
      "cito_": 2343,
      "ah_": 2344,
      "193": 2345,
      "lm": 2346,
      "δ": 2347,
      "dicis_": 2348,
      "tat_": 2349,
      "is": 2350,
      "pra": 2351,
      "iiª_": 2352,
      "aii": 2353,
      "nio_": 2354,
      "mori_": 2355,
      "ls": 2356,
      "gaudium_": 2357,
      "addit_": 2358,
      "seri": 2359,
      "petit_": 2360,
      "ter": 2361,
      "κ": 2362,
      "tores_": 2363,
      "ly_": 2364,
      "nc": 2365,
      "ice_": 2366,
      "vitia_": 2367,
      "inclinatio_": 2368,
      "redi": 2369,
      "justitiae_": 2370,
      "scriptor_": 2371,
      "entia_": 2372,
      "lie": 2373,
      "gr_": 2374,
      "edit_": 2375,
      "charitas_": 2376,
      "operatio_": 2377,
      "c": 2378,
      "sanguis_": 2379,
      "martii_": 2380,
      "dolore_": 2381,
      "lati": 2382,
      "lan": 2383,
      "ye": 2384,
      "vae_": 2385,
      "qa": 2386,
      "necno_": 2387,
      "fc": 2388,
      "vimus_": 2389,
      "bam_": 2390,
      "pti": 2391,
      "divinum_": 2392,
      "talibus_": 2393,
      "omni": 2394,
      "ue": 2395,
      "75_": 2396,
      "iva_": 2397,
      "recta_": 2398,
      "animal_": 2399,
      "titu": 2400,
      "192": 2401,
      "flu": 2402,
      "usi": 2403,
      "octo_": 2404,
      "geni": 2405,
      "edi": 2406,
      "sponte_": 2407,
      "est": 2408,
      "dio": 2409,
      "meos_": 2410,
      "sy": 2411,
      "eta": 2412,
      "og_": 2413,
      "oc_": 2414,
      "mons_": 2415,
      "con_": 2416,
      "icum_": 2417,
      "divino_": 2418,
      "tulit_": 2419,
      "septembris_": 2420,
      "prov_": 2421,
      "pedibus_": 2422,
      "corporum_": 2423,
      "titulo_": 2424,
      "patriae_": 2425,
      "naturali_": 2426,
      "b": 2427,
      "ih": 2428,
      "hen": 2429,
      "ostenditur_": 2430,
      "fci": 2431,
      "tti": 2432,
      "as": 2433,
      "nii": 2434,
      "xt": 2435,
      "nie": 2436,
      "maius_": 2437,
      "nd_": 2438,
      "qo": 2439,
      "principia_": 2440,
      "hu": 2441,
      "το": 2442,
      "periculo_": 2443,
      "monstrat_": 2444,
      "ssimus_": 2445,
      "pyrenaeis_": 2446,
      "corum_": 2447,
      "bus": 2448,
      "quosdam_": 2449,
      "ms": 2450,
      "magnis_": 2451,
      "duabus_": 2452,
      "probat_": 2453,
      "^^^_": 2454,
      "sim_": 2455,
      "putat_": 2456,
      "visum_": 2457,
      "capitis_": 2458,
      "sapientiae_": 2459,
      "habita": 2460,
      "fines_": 2461,
      "accipit_": 2462,
      "xxii_": 2463,
      "vino_": 2464,
      "videbatur_": 2465,
      "mt": 2466,
      "sem_": 2467,
      "auctoritatem_": 2468,
      "alc": 2469,
      "corporibus_": 2470,
      "ora": 2471,
      "nati_": 2472,
      "alicui_": 2473,
      "habeo_": 2474,
      "noli_": 2475,
      ".>_": 2476,
      "orbem_": 2477,
      "stu": 2478,
      "petro_": 2479,
      "equidem_": 2480,
      "erent_": 2481,
      "cum": 2482,
      "cas_": 2483,
      "xx": 2484,
      "poti": 2485,
      "ut": 2486,
      "tb": 2487,
      "operatur_": 2488,
      "tio": 2489,
      "superioris_": 2490,
      "veram_": 2491,
      "imperatoris_": 2492,
      "73": 2493,
      "varro_": 2494,
      "ie": 2495,
      "coa": 2496,
      "-^_": 2497,
      "afi": 2498,
      "rant_": 2499,
      "69_": 2500,
      "entem_": 2501,
      "operum_": 2502,
      "animas_": 2503,
      "les": 2504,
      "rix_": 2505,
      "pare": 2506,
      "esto_": 2507,
      "78": 2508,
      "universa_": 2509,
      "nit_": 2510,
      "pius_": 2511,
      "apo": 2512,
      "uus_": 2513,
      "sn": 2514,
      "nium_": 2515,
      "oo": 2516,
      "alteram_": 2517,
      "tis": 2518,
      "litterarum_": 2519,
      "nequi": 2520,
      "dupliciter_": 2521,
      "tiones_": 2522,
      "reliqua_": 2523,
      "urbes_": 2524,
      "faceret_": 2525,
      "ì": 2526,
      "malorum_": 2527,
      "prse": 2528,
      "gens_": 2529,
      "creatus_": 2530,
      "fac_": 2531,
      "perfecta_": 2532,
      "av_": 2533,
      "conditio_": 2534,
      "materiae_": 2535,
      "r": 2536,
      "argumentum_": 2537,
      "fn": 2538,
      "έ": 2539,
      "turba_": 2540,
      "58": 2541,
      "dolorem_": 2542,
      "rt": 2543,
      "oculi_": 2544,
      "191": 2545,
      "sacramenta_": 2546,
      "istum_": 2547,
      "mar": 2548,
      "crimen_": 2549,
      "sede_": 2550,
      "insuper_": 2551,
      "aliquot_": 2552,
      "nd": 2553,
      "bre": 2554,
      "59": 2555,
      "cp": 2556,
      "iti_": 2557,
      "bn": 2558,
      "gri": 2559,
      "roma_": 2560,
      "indu": 2561,
      "í": 2562,
      "ml": 2563,
      "mensis_": 2564,
      "dy": 2565,
      "quicquam_": 2566,
      "ton": 2567,
      "miles_": 2568,
      "hostis_": 2569,
      "temporum_": 2570,
      "vitium_": 2571,
      "inu": 2572,
      "volumus_": 2573,
      "castris_": 2574,
      "summam_": 2575,
      "intellectu_": 2576,
      "qn": 2577,
      "ntum_": 2578,
      "67_": 2579,
      "movet_": 2580,
      "veris_": 2581,
      "188": 2582,
      "dicto_": 2583,
      "cibus_": 2584,
      "utitur_": 2585,
      "entibus_": 2586,
      "copia_": 2587,
      "inum_": 2588,
      "exu": 2589,
      "los_": 2590,
      "anglice_": 2591,
      "systematis_": 2592,
      "nostrorum_": 2593,
      "nihilominus_": 2594,
      "virtutibus_": 2595,
      "menta_": 2596,
      "tom_": 2597,
      "sufficit_": 2598,
      "exa": 2599,
      "sci": 2600,
      "labore_": 2601,
      "sapientiam_": 2602,
      "liberum_": 2603,
      "iram_": 2604,
      "odi": 2605,
      "faciam_": 2606,
      "cogita": 2607,
      "ss": 2608,
      "w": 2609,
      "rj": 2610,
      "circum": 2611,
      "tro": 2612,
      "ebatur_": 2613,
      "corda_": 2614,
      "videretur_": 2615,
      "we": 2616,
      "novit_": 2617,
      "coni": 2618,
      "novembris_": 2619,
      "jc": 2620,
      "84": 2621,
      "sb": 2622,
      "duxit_": 2623,
      "iia": 2624,
      "dia": 2625,
      "me": 2626,
      "ici_": 2627,
      "»": 2628,
      "illae_": 2629,
      "api": 2630,
      "cn_": 2631,
      "duce_": 2632,
      "iulii_": 2633,
      "fecisse_": 2634,
      "nsi_": 2635,
      "san": 2636,
      "dia_": 2637,
      "sequuntur_": 2638,
      "imperatores_": 2639,
      "hc": 2640,
      "regna_": 2641,
      "enti": 2642,
      "xxiv_": 2643,
      "np": 2644,
      "pu": 2645,
      "ob": 2646,
      "ga_": 2647,
      "dv": 2648,
      "aeque_": 2649,
      "germaniae_": 2650,
      "ds_": 2651,
      "munera_": 2652,
      "quaecumque_": 2653,
      "eisdem_": 2654,
      "eae_": 2655,
      "cii": 2656,
      "ch": 2657,
      "scripsi_": 2658,
      "palam_": 2659,
      "rau": 2660,
      "ffi": 2661,
      "ani": 2662,
      "missus_": 2663,
      "heres_": 2664,
      "soi": 2665,
      "clu": 2666,
      "culum_": 2667,
      "ici": 2668,
      "humani_": 2669,
      "admodum_": 2670,
      "hin": 2671,
      "xxx_": 2672,
      "ico_": 2673,
      "han": 2674,
      "dele": 2675,
      "inde": 2676,
      "ferro_": 2677,
      "ben": 2678,
      "noni": 2679,
      "fj": 2680,
      "cn": 2681,
      "ofi": 2682,
      "ber_": 2683,
      "ere": 2684,
      "jii": 2685,
      "bou": 2686,
      "vivit_": 2687,
      "spe": 2688,
      "propriam_": 2689,
      "char": 2690,
      "cani": 2691,
      "quodammodo_": 2692,
      "praesenti_": 2693,
      "met_": 2694,
      "fli": 2695,
      "aj": 2696,
      "quotidie_": 2697,
      "passus_": 2698,
      "isa_": 2699,
      "τ": 2700,
      "confessio_": 2701,
      "istius_": 2702,
      "quae": 2703,
      "lli_": 2704,
      "tu": 2705,
      "ed": 2706,
      "aures_": 2707,
      "astronomis_": 2708,
      "variis_": 2709,
      "italiam_": 2710,
      "ko": 2711,
      "atem_": 2712,
      "cu_": 2713,
      "poenitentiam_": 2714,
      "diis_": 2715,
      "uide": 2716,
      "munere_": 2717,
      "lt": 2718,
      "aperte_": 2719,
      "ip": 2720,
      "februarii_": 2721,
      "ensem_": 2722,
      "aliena_": 2723,
      "littera_": 2724,
      "invenit_": 2725,
      "dea": 2726,
      "oii": 2727,
      "missa_": 2728,
      "supple": 2729,
      "opinionem_": 2730,
      "exe": 2731,
      "civium_": 2732,
      "88_": 2733,
      "cognoscere_": 2734,
      "tal": 2735,
      "maximum_": 2736,
      "apostolicae_": 2737,
      "quicumque_": 2738,
      "86": 2739,
      "y": 2740,
      "sia_": 2741,
      "artis_": 2742,
      "ole": 2743,
      "tha": 2744,
      "inter": 2745,
      "sui": 2746,
      "pretium_": 2747,
      "odio_": 2748,
      "lauda": 2749,
      "tnr_": 2750,
      "aba": 2751,
      "ub_": 2752,
      "81_": 2753,
      "ty_": 2754,
      "liu": 2755,
      "/": 2756,
      "isa": 2757,
      "ou": 2758,
      "filiam_": 2759,
      "ί": 2760,
      "quisquis_": 2761,
      "lf": 2762,
      "quid": 2763,
      "psalmo_": 2764,
      "tet_": 2765,
      "iussit_": 2766,
      "cl": 2767,
      "millia_": 2768,
      "loc": 2769,
      "foro_": 2770,
      "avi": 2771,
      "perfectum_": 2772,
      "perfectio_": 2773,
      "uc_": 2774,
      "neminem_": 2775,
      "fertur_": 2776,
      "scriba": 2777,
      "liberi_": 2778,
      "ita": 2779,
      "unusquisque_": 2780,
      "deinceps_": 2781,
      "pervenit_": 2782,
      "rea": 2783,
      "ila": 2784,
      "rursum_": 2785,
      "#_": 2786,
      "pietatis_": 2787,
      "65": 2788,
      "raa": 2789,
      "personis_": 2790,
      "are": 2791,
      "sta": 2792,
      "dignitatem_": 2793,
      "codice_": 2794,
      "veniam_": 2795,
      "xxiii_": 2796,
      "ilia_": 2797,
      "vides_": 2798,
      "tri_": 2799,
      "publicam_": 2800,
      "constituit_": 2801,
      "aen": 2802,
      "ulo_": 2803,
      "servi": 2804,
      "oa_": 2805,
      "quinto_": 2806,
      "al": 2807,
      "io": 2808,
      "eliam_": 2809,
      "ada": 2810,
      "cti_": 2811,
      "wa": 2812,
      "ef": 2813,
      "xe": 2814,
      "vellet_": 2815,
      "sapiens_": 2816,
      "axem_": 2817,
      "186": 2818,
      "jesum_": 2819,
      "um": 2820,
      "ultima_": 2821,
      "jj": 2822,
      "templo_": 2823,
      "qua": 2824,
      "ren": 2825,
      "ev": 2826,
      "prac": 2827,
      "multas_": 2828,
      "acci": 2829,
      "el": 2830,
      "j": 2831,
      "evangelium_": 2832,
      "eamdem_": 2833,
      "sv": 2834,
      "sel": 2835,
      "generalis_": 2836,
      "dt_": 2837,
      "bu": 2838,
      "84_": 2839,
      "pauca_": 2840,
      "cai": 2841,
      "λ": 2842,
      "cc": 2843,
      "atri": 2844,
      "iie_": 2845,
      "yo": 2846,
      "latere_": 2847,
      "tanti_": 2848,
      "jl": 2849,
      "tuorum_": 2850,
      "pne": 2851,
      "nonnulli_": 2852,
      "doctrinae_": 2853,
      "quarta_": 2854,
      "74_": 2855,
      "absolutam_": 2856,
      "vestram_": 2857,
      "reliquit_": 2858,
      "da": 2859,
      "f": 2860,
      "77_": 2861,
      "85": 2862,
      "87": 2863,
      "67": 2864,
      "ur": 2865,
      "tantam_": 2866,
      "repertus_": 2867,
      "pre": 2868,
      "coo": 2869,
      "nolite_": 2870,
      "libera_": 2871,
      "distans_": 2872,
      "cre": 2873,
      "regi": 2874,
      "liter_": 2875,
      "86_": 2876,
      "multitudo_": 2877,
      "laudem_": 2878,
      "amici_": 2879,
      "tru": 2880,
      "gua": 2881,
      "anim": 2882,
      "tri": 2883,
      "ic": 2884,
      "hostem_": 2885,
      "the": 2886,
      "nou_": 2887,
      "philo": 2888,
      "pau": 2889,
      "nim_": 2890,
      "audi_": 2891,
      "ful": 2892,
      "nin": 2893,
      "proximum_": 2894,
      "patitur_": 2895,
      "sciendum_": 2896,
      "debuit_": 2897,
      "tenebris_": 2898,
      "riis_": 2899,
      "patriam_": 2900,
      "lumine_": 2901,
      "continuo_": 2902,
      "ulis_": 2903,
      "dra": 2904,
      "iura_": 2905,
      "mani": 2906,
      "xal_": 2907,
      "antonius_": 2908,
      "aga": 2909,
      "mf": 2910,
      "mandata_": 2911,
      "hieronymus_": 2912,
      "auctore_": 2913,
      "79": 2914,
      "liv_": 2915,
      "publice_": 2916,
      "ingenio_": 2917,
      "addidit_": 2918,
      "fau": 2919,
      "vocant_": 2920,
      "passim_": 2921,
      "yide": 2922,
      "itus_": 2923,
      "civitatibus_": 2924,
      "«": 2925,
      "tati_": 2926,
      "ore": 2927,
      "meritis_": 2928,
      "alpibus_": 2929,
      "stra": 2930,
      "lau": 2931,
      "bel": 2932,
      "ili": 2933,
      "triginta_": 2934,
      "iia_": 2935,
      "aere_": 2936,
      "pc": 2937,
      "antem_": 2938,
      "ez_": 2939,
      "74": 2940,
      "maiorem_": 2941,
      "cra": 2942,
      "uli": 2943,
      "ade": 2944,
      "omnipotens_": 2945,
      "no": 2946,
      "ima_": 2947,
      "coeli_": 2948,
      "panem_": 2949,
      "perse": 2950,
      "iui": 2951,
      "ua": 2952,
      "significatur_": 2953,
      "prs": 2954,
      "fl": 2955,
      "diabolus_": 2956,
      "to": 2957,
      "tam": 2958,
      "animalia_": 2959,
      "arbitrio_": 2960,
      "oppido_": 2961,
      "sy_": 2962,
      "81": 2963,
      "temp": 2964,
      "pop": 2965,
      "jr": 2966,
      "culpam_": 2967,
      "gere_": 2968,
      "fo_": 2969,
      "cognoscit_": 2970,
      "caritas_": 2971,
      "nar": 2972,
      "h": 2973,
      "perpetuo_": 2974,
      "affi": 2975,
      "sti": 2976,
      "poly": 2977,
      "pt": 2978,
      "nimium_": 2979,
      "veluti_": 2980,
      "ultimum_": 2981,
      "sam_": 2982,
      "crucis_": 2983,
      "ponere_": 2984,
      "bet": 2985,
      "misere": 2986,
      "ü": 2987,
      "stare_": 2988,
      "interea_": 2989,
      "nau": 2990,
      "bol": 2991,
      "ide": 2992,
      "ale": 2993,
      "dicendi_": 2994,
      "dona": 2995,
      "cari": 2996,
      "quaestionem_": 2997,
      "locorum_": 2998,
      "69": 2999,
      "trium_": 3000,
      "egit_": 3001,
      "desi": 3002,
      "ies_": 3003,
      "dicentes_": 3004,
      "quale_": 3005,
      "ovi": 3006,
      "superbia_": 3007,
      "lti": 3008,
      "scriptis_": 3009,
      "uii": 3010,
      "mn": 3011,
      "aci": 3012,
      "mai": 3013,
      "uerit_": 3014,
      "book_": 3015,
      "fortis_": 3016,
      "cer": 3017,
      "ara": 3018,
      "sol": 3019,
      "largi": 3020,
      "η": 3021,
      "cium_": 3022,
      "sini": 3023,
      "ane": 3024,
      "poterant_": 3025,
      "protinus_": 3026,
      "mp": 3027,
      "ν": 3028,
      "mor": 3029,
      "reu": 3030,
      "pia_": 3031,
      "indi": 3032,
      "fui_": 3033,
      "fiu": 3034,
      "postremo_": 3035,
      "latus_": 3036,
      "cnim_": 3037,
      "continet_": 3038,
      "hostibus_": 3039,
      "gc": 3040,
      "poenas_": 3041,
      "som": 3042,
      "pot": 3043,
      "73_": 3044,
      "sacrificium_": 3045,
      "za": 3046,
      "meritum_": 3047,
      "uam_": 3048,
      "nee_": 3049,
      "transi": 3050,
      "sai": 3051,
      "79_": 3052,
      "72_": 3053,
      "46": 3054,
      "ay": 3055,
      "tov_": 3056,
      "frequenter_": 3057,
      "71_": 3058,
      "ciceronis_": 3059,
      "bra": 3060,
      "hec_": 3061,
      "roman": 3062,
      "ox": 3063,
      "ola": 3064,
      "hal": 3065,
      "montem_": 3066,
      "min": 3067,
      "187": 3068,
      "ndos_": 3069,
      "pli": 3070,
      "ida": 3071,
      "intelligit_": 3072,
      "ez": 3073,
      "auctoritas_": 3074,
      "lil": 3075,
      "justi_": 3076,
      "sermonem_": 3077,
      ",": 3078,
      "condita_": 3079,
      "adi": 3080,
      "laus_": 3081,
      "hæc_": 3082,
      "nox_": 3083,
      "habentes_": 3084,
      "pel": 3085,
      "movebatur_": 3086,
      "sur_": 3087,
      "abraham_": 3088,
      "archi": 3089,
      "tn": 3090,
      "eri": 3091,
      "du": 3092,
      "similia_": 3093,
      "nihilo_": 3094,
      "descendit_": 3095,
      "cnm_": 3096,
      "ik": 3097,
      "oci": 3098,
      "ssimo_": 3099,
      "gentis_": 3100,
      "veri": 3101,
      "51": 3102,
      "jo_": 3103,
      "necessitas_": 3104,
      "luna_": 3105,
      "fas_": 3106,
      "83_": 3107,
      "ό": 3108,
      "fideles_": 3109,
      "ing_": 3110,
      "solaris_": 3111,
      "muni": 3112,
      "consequens_": 3113,
      "76_": 3114,
      "pio_": 3115,
      "an": 3116,
      "breviter_": 3117,
      "mariae_": 3118,
      "tli": 3119,
      "plerique_": 3120,
      "ndae_": 3121,
      "eci": 3122,
      "tura_": 3123,
      "principem_": 3124,
      "of": 3125,
      "precibus_": 3126,
      "...._": 3127,
      "præ": 3128,
      "cfr_": 3129,
      "arium_": 3130,
      "angelorum_": 3131,
      "uli_": 3132,
      "72": 3133,
      "prophetae_": 3134,
      "libenter_": 3135,
      "ha": 3136,
      "tur": 3137,
      "humanum_": 3138,
      "eii": 3139,
      "lr": 3140,
      "affectus_": 3141,
      "111_": 3142,
      "terrestribus_": 3143,
      "hy": 3144,
      "lli": 3145,
      "aquas_": 3146,
      "ati": 3147,
      "placuit_": 3148,
      "conscientia_": 3149,
      "virorum_": 3150,
      "tei": 3151,
      "definitio_": 3152,
      "codex_": 3153,
      "secutus_": 3154,
      "vus_": 3155,
      "sili": 3156,
      "orat_": 3157,
      "vesti": 3158,
      "sacramento_": 3159,
      "-&_": 3160,
      "ju_": 3161,
      "vn": 3162,
      "ak": 3163,
      "simplex_": 3164,
      "pcr": 3165,
      "iii": 3166,
      "index_": 3167,
      "franciae_": 3168,
      "ke_": 3169,
      "voces_": 3170,
      "defi": 3171,
      "eni": 3172,
      "uri_": 3173,
      "mora_": 3174,
      "linguam_": 3175,
      "saecula_": 3176,
      "nominibus_": 3177,
      "cogitatio_": 3178,
      "aeternam_": 3179,
      "!": 3180,
      "mni": 3181,
      "af": 3182,
      "specialiter_": 3183,
      "iustitia_": 3184,
      "bilem_": 3185,
      "inve": 3186,
      "docuit_": 3187,
      "cap": 3188,
      "liberos_": 3189,
      "latina_": 3190,
      "evi": 3191,
      "vestri_": 3192,
      "uos_": 3193,
      "prae": 3194,
      "cius_": 3195,
      "pla": 3196,
      "originem_": 3197,
      "fae": 3198,
      "diu": 3199,
      "litterae_": 3200,
      "scripturae_": 3201,
      "necessario_": 3202,
      "vias_": 3203,
      "pus_": 3204,
      "pere": 3205,
      "praeceptum_": 3206,
      "factis_": 3207,
      "и": 3208,
      "filiorum_": 3209,
      "nostras_": 3210,
      "carmina_": 3211,
      "ö": 3212,
      "ty": 3213,
      "opi": 3214,
      "circum_": 3215,
      "pas_": 3216,
      "humanam_": 3217,
      "agnitus_": 3218,
      "pueri_": 3219,
      "vota_": 3220,
      "fratris_": 3221,
      "edidit_": 3222,
      "ain": 3223,
      "charitatis_": 3224,
      "veteris_": 3225,
      "auri_": 3226,
      "eretur_": 3227,
      "flumen_": 3228,
      "der": 3229,
      "certa": 3230,
      "potentiae_": 3231,
      "post": 3232,
      "digna_": 3233,
      "bor": 3234,
      "bo": 3235,
      "nv": 3236,
      "iube": 3237,
      "hor": 3238,
      "foris_": 3239,
      "eumdem_": 3240,
      "iie": 3241,
      "gai": 3242,
      "ipi": 3243,
      "а": 3244,
      "fra": 3245,
      "95_": 3246,
      "89_": 3247,
      "illuc_": 3248,
      "eram_": 3249,
      "norum_": 3250,
      "tp": 3251,
      "sar": 3252,
      "rf": 3253,
      "corpori_": 3254,
      "lori": 3255,
      "82_": 3256,
      "uterque_": 3257,
      "semen_": 3258,
      "iunii_": 3259,
      "cae": 3260,
      "similes_": 3261,
      "senatum_": 3262,
      "secta": 3263,
      "amur_": 3264,
      "oo_": 3265,
      "mal": 3266,
      "asteroides_": 3267,
      "nom": 3268,
      "ave": 3269,
      "or": 3270,
      "gr": 3271,
      "fratrum_": 3272,
      "á": 3273,
      "dp": 3274,
      "repente_": 3275,
      "usa": 3276,
      "iio": 3277,
      "189": 3278,
      "hir": 3279,
      "eor": 3280,
      "maximus_": 3281,
      "spiritualis_": 3282,
      "discipulis_": 3283,
      "mo": 3284,
      "mac": 3285,
      "sou": 3286,
      "ato_": 3287,
      "unitatum_": 3288,
      "possibile_": 3289,
      "tudo_": 3290,
      "qna": 3291,
      "rie": 3292,
      "perfectionem_": 3293,
      "lari": 3294,
      "rc": 3295,
      "mu_": 3296,
      "imi": 3297,
      "subdit_": 3298,
      "ff_": 3299,
      "sat_": 3300,
      "singulos_": 3301,
      "praesentia_": 3302,
      "asper": 3303,
      "quam": 3304,
      "pru": 3305,
      "ii": 3306,
      "gladio_": 3307,
      "hs": 3308,
      "desiderium_": 3309,
      "dixisse_": 3310,
      "antiqua_": 3311,
      "plebis_": 3312,
      "visio_": 3313,
      "sse": 3314,
      "anomalia_": 3315,
      "memoriae_": 3316,
      "reperiebatur_": 3317,
      "epocha_": 3318,
      "errore_": 3319,
      "creaturae_": 3320,
      "studia_": 3321,
      "ona": 3322,
      "mandatum_": 3323,
      "iro": 3324,
      "differentia_": 3325,
      "attributus_": 3326,
      "mari": 3327,
      "lorum_": 3328,
      "fica": 3329,
      "igi": 3330,
      "lem": 3331,
      "fta": 3332,
      "xv": 3333,
      "vjooqic_": 3334,
      "secus_": 3335,
      "personas_": 3336,
      "hm": 3337,
      "vt": 3338,
      "tii_": 3339,
      "ip_": 3340,
      "testamento_": 3341,
      "poetae_": 3342,
      "den": 3343,
      "89": 3344,
      "sf": 3345,
      "pou": 3346,
      "menti": 3347,
      "ulterius_": 3348,
      "nid": 3349,
      "auxilio_": 3350,
      "duces_": 3351,
      "viae_": 3352,
      "vetus_": 3353,
      "un_": 3354,
      "ossa_": 3355,
      "et": 3356,
      "illa": 3357,
      "eut": 3358,
      "wo": 3359,
      "os": 3360,
      "potuisse_": 3361,
      "pectore_": 3362,
      "dignitate_": 3363,
      "ig_": 3364,
      "lot": 3365,
      "ea": 3366,
      "visus_": 3367,
      "ullo_": 3368,
      "orbitalis_": 3369,
      "concilio_": 3370,
      "epochae_": 3371,
      "vei": 3372,
      "poenae_": 3373,
      "osi": 3374,
      "moli": 3375,
      "iorum_": 3376,
      "pras": 3377,
      "personarum_": 3378,
      "parva_": 3379,
      "multitudinem_": 3380,
      "consequenter_": 3381,
      "sacramenti_": 3382,
      "nat_": 3383,
      "mi": 3384,
      "87_": 3385,
      "yri": 3386,
      "tan": 3387,
      "agi": 3388,
      "orbe_": 3389,
      "morum_": 3390,
      "li": 3391,
      "exinde_": 3392,
      "ecc": 3393,
      "har": 3394,
      "fui": 3395,
      "xl": 3396,
      "vera": 3397,
      "•": 3398,
      "grati": 3399,
      "graecis_": 3400,
      "vcl_": 3401,
      "regia_": 3402,
      "ima": 3403,
      "vs": 3404,
      "ili_": 3405,
      "nii_": 3406,
      "iiu": 3407,
      "astronomicarum_": 3408,
      "orbitalem_": 3409,
      "ec": 3410,
      "erc": 3411,
      "pia": 3412,
      "cx": 3413,
      "155": 3414,
      "ien": 3415,
      "amicus_": 3416,
      "fuf": 3417,
      "tradidit_": 3418,
      "sequa": 3419,
      "efi": 3420,
      "orbitalium_": 3421,
      "eccentricitatem_": 3422,
      "asteroidibus_": 3423,
      "age_": 3424,
      "υ": 3425,
      "communem_": 3426,
      "arius_": 3427,
      "mere": 3428,
      "ascendit_": 3429,
      "elo": 3430,
      "legati_": 3431,
      "equites_": 3432,
      "//_": 3433,
      "soli": 3434,
      "simili_": 3435,
      "ds": 3436,
      "ami": 3437,
      "ali": 3438,
      "prx": 3439,
      "on": 3440,
      "forsitan_": 3441,
      "tia": 3442,
      "reddere_": 3443,
      "membris_": 3444,
      "itatis_": 3445,
      "genuit_": 3446,
      "sli": 3447,
      "fata_": 3448,
      "cv": 3449,
      "tenere_": 3450,
      "ssimi_": 3451,
      "factionis_": 3452,
      "e": 3453,
      "amo": 3454,
      "formula_": 3455,
      "iubet_": 3456,
      "errorem_": 3457,
      "ecclesiis_": 3458,
      "consensu_": 3459,
      "bt": 3460,
      "bns_": 3461,
      "error_": 3462,
      "confi": 3463,
      "partium_": 3464,
      "tene": 3465,
      "rn": 3466,
      "ceteri_": 3467,
      "tig": 3468,
      "sig": 3469,
      "mon": 3470,
      "multae_": 3471,
      "90": 3472,
      "ves": 3473,
      "pontifex_": 3474,
      "multorum_": 3475,
      "elu": 3476,
      "enti_": 3477,
      "propriis_": 3478,
      "oon": 3479,
      "mont": 3480,
      "lp": 3481,
      "ear": 3482,
      "xxvi_": 3483,
      "vr": 3484,
      "moveri_": 3485,
      "australi_": 3486,
      "cr": 3487,
      "virginis_": 3488,
      "pere_": 3489,
      "91_": 3490,
      "vale_": 3491,
      "amat_": 3492,
      "fin": 3493,
      "odium_": 3494,
      "pe": 3495,
      "monasterium_": 3496,
      "abbas_": 3497,
      "dm": 3498,
      "concilium_": 3499,
      "preces_": 3500,
      "caeteris_": 3501,
      "yd": 3502,
      "opes_": 3503,
      "icus_": 3504,
      "82": 3505,
      "ilis_": 3506,
      "cb": 3507,
      "penetra": 3508,
      "yi_": 3509,
      "ig": 3510,
      "esse": 3511,
      "dignus_": 3512,
      "71": 3513,
      "ordina": 3514,
      "kt": 3515,
      "del": 3516,
      "harum_": 3517,
      "debitum_": 3518,
      "tantummodo_": 3519,
      "quar": 3520,
      "rum": 3521,
      "fe": 3522,
      "meas_": 3523,
      "lucis_": 3524,
      "ll": 3525,
      "uo": 3526,
      "ui": 3527,
      "ssa_": 3528,
      "actionem_": 3529,
      "civitatum_": 3530,
      "78_": 3531,
      "montis_": 3532,
      "genera": 3533,
      "oui": 3534,
      "ciam_": 3535,
      "beneficium_": 3536,
      "100_": 3537,
      "consules_": 3538,
      "spa": 3539,
      "similitudo_": 3540,
      "alta_": 3541,
      "lit": 3542,
      "td": 3543,
      "nam": 3544,
      "jer": 3545,
      "ete": 3546,
      "novae_": 3547,
      "papae_": 3548,
      "decimo_": 3549,
      "yt": 3550,
      "prce": 3551,
      "maiores_": 3552,
      "bia": 3553,
      "cinguli_": 3554,
      "ich": 3555,
      "cho": 3556,
      "fai": 3557,
      "rp": 3558,
      "quem": 3559,
      "bonos_": 3560,
      "eie": 3561,
      "teste_": 3562,
      "pecca": 3563,
      "ducem_": 3564,
      "df": 3565,
      "tin": 3566,
      "fidelium_": 3567,
      "aeris_": 3568,
      "ph_": 3569,
      "ferunt_": 3570,
      "episcopis_": 3571,
      "mam_": 3572,
      "lui_": 3573,
      "ito_": 3574,
      "resurrectio_": 3575,
      "unitatem_": 3576,
      "fie": 3577,
      "mr": 3578,
      "ndi": 3579,
      "incon": 3580,
      "eu_": 3581,
      "rl": 3582,
      "quamdam_": 3583,
      "honor_": 3584,
      "ger": 3585,
      "tem": 3586,
      "fit": 3587,
      "k": 3588,
      "fugit_": 3589,
      "decet_": 3590,
      "quales_": 3591,
      "noctem_": 3592,
      "par": 3593,
      "mu": 3594,
      "gera": 3595,
      "fratri_": 3596,
      "uber": 3597,
      "ly": 3598,
      "resp_": 3599,
      "ib": 3600,
      "veni_": 3601,
      "salus_": 3602,
      "obe": 3603,
      "sor": 3604,
      "infi": 3605,
      "testamentum_": 3606,
      "sexto_": 3607,
      "vale": 3608,
      "sce": 3609,
      "rre": 3610,
      "nter_": 3611,
      "ki_": 3612,
      "respondet_": 3613,
      "pour_": 3614,
      "morem_": 3615,
      "iustitiae_": 3616,
      "lio": 3617,
      "gum_": 3618,
      "vl": 3619,
      "fla": 3620,
      "83": 3621,
      "tie": 3622,
      "marcus_": 3623,
      "iri_": 3624,
      "principe_": 3625,
      "prc": 3626,
      "carmen_": 3627,
      "sl": 3628,
      "xl_": 3629,
      "qnam_": 3630,
      "ti": 3631,
      "ser_": 3632,
      "er": 3633,
      "bai": 3634,
      "vehementer_": 3635,
      "sii_": 3636,
      "recipit_": 3637,
      "potestatis_": 3638,
      "sius_": 3639,
      "fru": 3640,
      "ex": 3641,
      "testatur_": 3642,
      "ze": 3643,
      "ulum_": 3644,
      "quaerit_": 3645,
      "por": 3646,
      "uci": 3647,
      "mae": 3648,
      "auctorem_": 3649,
      "speciei_": 3650,
      "quidquam_": 3651,
      "indo": 3652,
      "aquis_": 3653,
      "tra": 3654,
      "notum_": 3655,
      "gesta_": 3656,
      "sd": 3657,
      "melior_": 3658,
      "vestigia_": 3659,
      "gli": 3660,
      "sen": 3661,
      "passionis_": 3662,
      "ario_": 3663,
      "vice_": 3664,
      "rta": 3665,
      "fus": 3666,
      "dudum_": 3667,
      "credit_": 3668,
      "consuetudinem_": 3669,
      "tenetur_": 3670,
      "honoris_": 3671,
      "rhodano_": 3672,
      "habebant_": 3673,
      "ver": 3674,
      "ven": 3675,
      "parentes_": 3676,
      "novam_": 3677,
      "pp": 3678,
      "dicebant_": 3679,
      "jube": 3680,
      "secundam_": 3681,
      "fd": 3682,
      "ump": 3683,
      "dura": 3684,
      "asc": 3685,
      "■": 3686,
      "mento_": 3687,
      "foederalis_": 3688,
      "laude_": 3689,
      "be": 3690,
      "hl": 3691,
      "comparatio_": 3692,
      "quadraginta_": 3693,
      "omi": 3694,
      "itum_": 3695,
      "185": 3696,
      "accedit_": 3697,
      "gro": 3698,
      "ede": 3699,
      "sicuti_": 3700,
      "lar": 3701,
      "wer": 3702,
      "occitania_": 3703,
      "ag_": 3704,
      "val": 3705,
      "lici": 3706,
      "jp": 3707,
      "cin": 3708,
      "eti": 3709,
      "profectus_": 3710,
      "ud": 3711,
      "testis_": 3712,
      "ruscino_": 3713,
      "haberi_": 3714,
      "praedicta_": 3715,
      "son": 3716,
      "aut": 3717,
      "animis_": 3718,
      "salute_": 3719,
      "liti": 3720,
      "secundus_": 3721,
      "rot": 3722,
      "icae_": 3723,
      "superior_": 3724,
      "insi": 3725,
      "arii_": 3726,
      "potens_": 3727,
      "cg": 3728,
      "amicitia_": 3729,
      "xerunt_": 3730,
      "uda": 3731,
      "asse": 3732,
      "meruit_": 3733,
      "libera": 3734,
      "bis": 3735,
      "ht": 3736,
      "az": 3737,
      "ars_": 3738,
      "fr": 3739,
      "alibus_": 3740,
      "di": 3741,
      "lci": 3742,
      "ilem_": 3743,
      "gravis_": 3744,
      "riae_": 3745,
      "celebra": 3746,
      "minister_": 3747,
      "md": 3748,
      "tela_": 3749,
      "leni": 3750,
      "vestro_": 3751,
      "umbra_": 3752,
      "fiant_": 3753,
      "uri": 3754,
      "cro": 3755,
      "rege": 3756,
      "testa": 3757,
      "ett": 3758,
      "000_": 3759,
      "roc": 3760,
      "ciu": 3761,
      "94_": 3762,
      "hd": 3763,
      "disciplina_": 3764,
      "dant_": 3765,
      "rtu": 3766,
      "ubi": 3767,
      "moi": 3768,
      "cet": 3769,
      "vini_": 3770,
      "dabo_": 3771,
      "▼_": 3772,
      "ver_": 3773,
      "so": 3774,
      "heli": 3775,
      "vulg_": 3776,
      "distinctio_": 3777,
      "yu": 3778,
      "ponti": 3779,
      "adversum_": 3780,
      "possis_": 3781,
      "felix_": 3782,
      "congrega": 3783,
      "patribus_": 3784,
      "temere_": 3785,
      "resurrectionem_": 3786,
      "fidelis_": 3787,
      "alicujus_": 3788,
      "aetas_": 3789,
      "militibus_": 3790,
      "utpote_": 3791,
      "biles_": 3792,
      "sina": 3793,
      "ki": 3794,
      "es": 3795,
      "sand": 3796,
      "nata": 3797,
      "discipuli_": 3798,
      "societatis_": 3799,
      "pb": 3800,
      "patri": 3801,
      "gt": 3802,
      "veniat_": 3803,
      "scribere_": 3804,
      "infinita_": 3805,
      "regina_": 3806,
      "θ": 3807,
      "designationibus_": 3808,
      "catholicae_": 3809,
      "atqui_": 3810,
      "postmodum_": 3811,
      "hae": 3812,
      "divisio_": 3813,
      "va": 3814,
      "sur": 3815,
      "reliquis_": 3816,
      "mulieres_": 3817,
      "clo": 3818,
      "cessa": 3819,
      "ian": 3820,
      "primae_": 3821,
      "inte": 3822,
      "has": 3823,
      "negat_": 3824,
      "terr": 3825,
      "db": 3826,
      "col_": 3827,
      "charitate_": 3828,
      "?": 3829,
      "quamdiu_": 3830,
      "victoria_": 3831,
      "ebantur_": 3832,
      "cal": 3833,
      "bat": 3834,
      "subi": 3835,
      "pta": 3836,
      "meti": 3837,
      "studiis_": 3838,
      "mentio_": 3839,
      "consi": 3840,
      "coii": 3841,
      "amicis_": 3842,
      "agri_": 3843,
      "rti": 3844,
      "rint_": 3845,
      "quintum_": 3846,
      "passionem_": 3847,
      "ctis_": 3848,
      "amicos_": 3849,
      "zan": 3850,
      "plurima_": 3851,
      "ci": 3852,
      "matre_": 3853,
      "ostensum_": 3854,
      "pei": 3855,
      "gni": 3856,
      "decretum_": 3857,
      "93_": 3858,
      "victor_": 3859,
      "ham": 3860,
      "gne": 3861,
      "fu": 3862,
      "dabit_": 3863,
      "sb_": 3864,
      "caritatis_": 3865,
      "uer": 3866,
      "doce": 3867,
      "dicendo_": 3868,
      "oper": 3869,
      "multi": 3870,
      "divini_": 3871,
      "dece": 3872,
      "livi": 3873,
      "bes": 3874,
      "competit_": 3875,
      "oria_": 3876,
      "marg_": 3877,
      "ina": 3878,
      "wi": 3879,
      "esi": 3880,
      "def": 3881,
      "mina_": 3882,
      "ev_": 3883,
      "ducis_": 3884,
      "recepit_": 3885,
      "graeco_": 3886,
      "lioc_": 3887,
      "apparuit_": 3888,
      "altare_": 3889,
      "icis_": 3890,
      "aq": 3891,
      "ios_": 3892,
      "qt": 3893,
      "with_": 3894,
      "rop": 3895,
      "interpretatur_": 3896,
      "etis_": 3897,
      "sus": 3898,
      "quandam_": 3899,
      "len": 3900,
      "loca": 3901,
      "faciet_": 3902,
      "xs": 3903,
      "verb": 3904,
      "consu": 3905,
      "sermonis_": 3906,
      "ioni_": 3907,
      "audi": 3908,
      "96_": 3909,
      "43": 3910,
      "trans_": 3911,
      "8": 3912,
      "vere": 3913,
      "mini": 3914,
      "ibu": 3915,
      "perpetuum_": 3916,
      "dat": 3917,
      "capita_": 3918,
      "brevi_": 3919,
      "cce": 3920,
      "bil": 3921,
      "insu": 3922,
      "paulum_": 3923,
      "extrema_": 3924,
      "sae_": 3925,
      "prudentia_": 3926,
      "mone": 3927,
      "u": 3928,
      "illu": 3929,
      "antiqui_": 3930,
      "100": 3931,
      "gn": 3932,
      "sit": 3933,
      "sede": 3934,
      "bla": 3935,
      "nai": 3936,
      "ì_": 3937,
      "oti": 3938,
      "mana": 3939,
      "fili": 3940,
      "fil": 3941,
      "stre": 3942,
      "ceri": 3943,
      "ultro_": 3944,
      "cu": 3945,
      "oma": 3946,
      "arbitror_": 3947,
      "ios": 3948,
      "efl_": 3949,
      "dcc": 3950,
      "mortale_": 3951,
      "impi": 3952,
      "eq": 3953,
      "remedium_": 3954,
      "nu": 3955,
      "tace": 3956,
      "amare_": 3957,
      "oves_": 3958,
      "dun": 3959,
      "apostolicam_": 3960,
      "49": 3961,
      "responsio_": 3962,
      "ducit_": 3963,
      "dens_": 3964,
      "usc": 3965,
      "rin": 3966,
      "auctores_": 3967,
      "acri": 3968,
      "mede": 3969,
      "scimus_": 3970,
      "multitudi_": 3971,
      "vf": 3972,
      "egi": 3973,
      "vcr": 3974,
      "gradu_": 3975,
      "ambo_": 3976,
      "signis_": 3977,
      "ilo": 3978,
      "feci_": 3979,
      "fub": 3980,
      "onus_": 3981,
      "nte": 3982,
      "vir": 3983,
      "necessitatem_": 3984,
      "mm": 3985,
      "eda": 3986,
      "sodalis_": 3987,
      "mau": 3988,
      "proximo_": 3989,
      "castrum_": 3990,
      "ult_": 3991,
      "quanquam_": 3992,
      "bs": 3993,
      "reus_": 3994,
      "hsec_": 3995,
      "duorum_": 3996,
      "peccatores_": 3997,
      "credimus_": 3998,
      "codices_": 3999,
      "senti": 4000,
      "seni": 4001,
      "lei": 4002,
      "cato_": 4003,
      "ap": 4004,
      "ado": 4005,
      "actibus_": 4006,
      "fabula_": 4007,
      "occu": 4008,
      "dict": 4009,
      "uc": 4010,
      "pror": 4011,
      "pota": 4012,
      "poenitentia_": 4013,
      "91": 4014,
      "suscepit_": 4015,
      "monasterii_": 4016,
      "ai": 4017,
      "synodo_": 4018,
      "quin": 4019,
      "petrum_": 4020,
      "pap": 4021,
      "carolus_": 4022,
      "bb": 4023,
      "fiet_": 4024,
      "quis": 4025,
      "prin": 4026,
      "llo_": 4027,
      "pondus_": 4028,
      "fili_": 4029,
      "vor": 4030,
      "mid": 4031,
      "honores_": 4032,
      "iles_": 4033,
      "alienum_": 4034,
      "aequi": 4035,
      "uere_": 4036,
      "cod": 4037,
      "inimici_": 4038,
      "noti": 4039,
      "not": 4040,
      "ge": 4041,
      "caesarem_": 4042,
      "en": 4043,
      "sab_": 4044,
      "mutatio_": 4045,
      "continetur_": 4046,
      "conti": 4047,
      "tertius_": 4048,
      "for": 4049,
      "xp": 4050,
      "potuerunt_": 4051,
      "o": 4052,
      "iisdem_": 4053,
      "dierum_": 4054,
      "sl_": 4055,
      "iun": 4056,
      "i5_": 4057,
      "97_": 4058,
      "xc": 4059,
      "utero_": 4060,
      "poi": 4061,
      "orientali_": 4062,
      "judicii_": 4063,
      "aedi": 4064,
      "lata_": 4065,
      "bos_": 4066,
      "ry": 4067,
      "cf": 4068,
      "obiit_": 4069,
      "sep": 4070,
      "ationem_": 4071,
      "a": 4072,
      "unio_": 4073,
      "difficile_": 4074,
      "ostendere_": 4075,
      "oj": 4076,
      "ndas_": 4077,
      "yc": 4078,
      "uisse_": 4079,
      "doni": 4080,
      "absit_": 4081,
      "secu": 4082,
      "iid": 4083,
      "auf": 4084,
      "funda": 4085,
      "solu": 4086,
      "occurrit_": 4087,
      "vita": 4088,
      "pugna_": 4089,
      "exo": 4090,
      "bon": 4091,
      "deci": 4092,
      "ferri_": 4093,
      "petere_": 4094,
      "manu": 4095,
      "ri": 4096,
      "llis_": 4097,
      "cepit_": 4098,
      "appella": 4099,
      "pio": 4100,
      "perf": 4101,
      "gesta": 4102,
      "vitio_": 4103,
      "culpae_": 4104,
      "dividitur_": 4105,
      "consilia_": 4106,
      "orc": 4107,
      "yer": 4108,
      "habitu_": 4109,
      "verus_": 4110,
      "rationibus_": 4111,
      "oria": 4112,
      "pta_": 4113,
      "notandum_": 4114,
      "niam_": 4115,
      "lice": 4116,
      "fet": 4117,
      "publicus_": 4118,
      "condi": 4119,
      "conci": 4120,
      "che": 4121,
      "graviter_": 4122,
      "dispositio_": 4123,
      "vic": 4124,
      "justum_": 4125,
      "gla": 4126,
      "fen": 4127,
      "unt": 4128,
      "arbitrium_": 4129,
      "oe": 4130,
      "ila_": 4131,
      "idus_": 4132,
      "abe": 4133,
      "praedi": 4134,
      "fir": 4135,
      "asi": 4136,
      "nses_": 4137,
      "testamenti_": 4138,
      "prodi": 4139,
      "xr": 4140,
      "qm": 4141,
      "testes_": 4142,
      "cen": 4143,
      "bru": 4144,
      "ultimo_": 4145,
      "ht_": 4146,
      "scu": 4147,
      "pie_": 4148,
      "metu": 4149,
      "ih_": 4150,
      "hun": 4151,
      "peru": 4152,
      "pera": 4153,
      "kl": 4154,
      "hol": 4155,
      "fabi": 4156,
      "diaboli_": 4157,
      "bos": 4158,
      "quoties_": 4159,
      "peri": 4160,
      "magnitudi_": 4161,
      "emp": 4162,
      "vultus_": 4163,
      "nostr": 4164,
      "dives_": 4165,
      "sla": 4166,
      "rag": 4167,
      "imperatorem_": 4168,
      "malitia_": 4169,
      "lin": 4170,
      "fis_": 4171,
      "alioquin_": 4172,
      "regula_": 4173,
      "gis_": 4174,
      "edu": 4175,
      "mol": 4176,
      "ja_": 4177,
      "utinam_": 4178,
      "if": 4179,
      "gia": 4180,
      "aui": 4181,
      "proximi_": 4182,
      "agro_": 4183,
      "honorius_": 4184,
      "sim": 4185,
      "sam": 4186,
      "ret": 4187,
      "liberat": 4188,
      "siv": 4189,
      "mortui_": 4190,
      "nomina": 4191,
      "considera": 4192,
      "narrat_": 4193,
      "forti": 4194,
      "pul": 4195,
      "factam_": 4196,
      "electio_": 4197,
      "ng": 4198,
      "qui": 4199,
      "constanti": 4200,
      "cea": 4201,
      "monasterio_": 4202,
      "bor_": 4203,
      "baptismum_": 4204,
      "xu": 4205,
      "venerunt_": 4206,
      "this_": 4207,
      "consilii_": 4208,
      "ill": 4209,
      "quaerere_": 4210,
      "para": 4211,
      "aec": 4212,
      "angelos_": 4213,
      "mot": 4214,
      "malus_": 4215,
      "mc_": 4216,
      "dh": 4217,
      "uh": 4218,
      "torque": 4219,
      "pacto_": 4220,
      "oc": 4221,
      "anis_": 4222,
      "rr": 4223,
      "piam_": 4224,
      "kc": 4225,
      "inge": 4226,
      "potenti": 4227,
      "abs": 4228,
      "officia_": 4229,
      "tertiam_": 4230,
      "inci": 4231,
      "dura_": 4232,
      "demo": 4233,
      "sita": 4234,
      "resi": 4235,
      "religione_": 4236,
      "custodi": 4237,
      "ck": 4238,
      "voluerit_": 4239,
      "catholica_": 4240,
      "bonam_": 4241,
      "argentum_": 4242,
      "nea": 4243,
      "metus_": 4244,
      "dicamus_": 4245,
      "caritate_": 4246,
      "osum_": 4247,
      "fons_": 4248,
      "cata": 4249,
      "bet_": 4250,
      "dac": 4251,
      "culo_": 4252,
      "superi": 4253,
      "pit_": 4254,
      "lua": 4255,
      "glo": 4256,
      "ó": 4257,
      "vas_": 4258,
      "land": 4259,
      "pil": 4260,
      "ji": 4261,
      "hab": 4262,
      "■&_": 4263,
      "mem_": 4264,
      "lia": 4265,
      "dilige": 4266,
      "qno": 4267,
      "mera": 4268,
      "praesentis_": 4269,
      "aver": 4270,
      "ine_": 4271,
      "relatio_": 4272,
      "nusquam_": 4273,
      "mei": 4274,
      "potissimum_": 4275,
      "po": 4276,
      "magistratus_": 4277,
      "intelligendum_": 4278,
      "chi": 4279,
      "76": 4280,
      "penes_": 4281,
      "hei": 4282,
      "accepta_": 4283,
      "templi_": 4284,
      "religio_": 4285,
      "habuisse_": 4286,
      "gor": 4287,
      "go": 4288,
      "ffi_": 4289,
      "tere_": 4290,
      "seq_": 4291,
      "qiia": 4292,
      "datus_": 4293,
      "cadit_": 4294,
      "seg": 4295,
      "inc_": 4296,
      "eras_": 4297,
      "dera": 4298,
      "hel": 4299,
      "hai": 4300,
      "teri": 4301,
      "tcr": 4302,
      "tar_": 4303,
      "sua": 4304,
      "inest_": 4305,
      "vi": 4306,
      "rs": 4307,
      "lui": 4308,
      "ill_": 4309,
      "trinitate_": 4310,
      "fio": 4311,
      "exod_": 4312,
      "capta": 4313,
      "99_": 4314,
      "fuc": 4315,
      "cita": 4316,
      "ingens_": 4317,
      "fp": 4318,
      "des": 4319,
      "bonae_": 4320,
      "septimo_": 4321,
      "sapienti": 4322,
      "mensura_": 4323,
      "fad": 4324,
      "oen": 4325,
      "fert_": 4326,
      "cto_": 4327,
      "aco": 4328,
      "75": 4329,
      "tari": 4330,
      "ifi": 4331,
      "cop": 4332,
      "memora": 4333,
      "ebri": 4334,
      "lava": 4335,
      "priusquam_": 4336,
      "principum_": 4337,
      "js": 4338,
      "domos_": 4339,
      "riam_": 4340,
      "mortuis_": 4341,
      "generali_": 4342,
      "denuo_": 4343,
      "invidia_": 4344,
      "videantur_": 4345,
      "tai": 4346,
      "cri": 4347,
      "ambi": 4348,
      "od": 4349,
      "--_": 4350,
      "vitiis_": 4351,
      "dato_": 4352,
      "consuetudi_": 4353,
      "log": 4354,
      "iis": 4355,
      "fle": 4356,
      "mus": 4357,
      "vili": 4358,
      "superioribus_": 4359,
      "sole": 4360,
      "proi": 4361,
      "vc": 4362,
      "sed": 4363,
      "sacri_": 4364,
      "noctis_": 4365,
      "nac": 4366,
      "labor_": 4367,
      "idi": 4368,
      "ecclesiarum_": 4369,
      "cultus_": 4370,
      "aus": 4371,
      "prohibe": 4372,
      "manifesta": 4373,
      "accipitur_": 4374,
      "mas_": 4375,
      "dea_": 4376,
      "coe": 4377,
      "pes_": 4378,
      "gran": 4379,
      "ero": 4380,
      "debeant_": 4381,
      "erti": 4382,
      "praee": 4383,
      "si": 4384,
      "quapropter_": 4385,
      "proba": 4386,
      "maximo_": 4387,
      "utile_": 4388,
      "nec": 4389,
      "uf_": 4390,
      "pretio_": 4391,
      "ple": 4392,
      "joan_": 4393,
      "gradum_": 4394,
      "repu": 4395,
      "nna": 4396,
      "pecuniae_": 4397,
      "ifl": 4398,
      "cun_": 4399,
      "ten": 4400,
      "corona": 4401,
      "antiquis_": 4402,
      "quolibet_": 4403,
      "iur_": 4404,
      "librorum_": 4405,
      "juda_": 4406,
      "adventum_": 4407,
      "ys": 4408,
      "qii": 4409,
      "vidc": 4410,
      "liberis_": 4411,
      "finibus_": 4412,
      "accipiunt_": 4413,
      "solam_": 4414,
      "longum_": 4415,
      "fi": 4416,
      "esa": 4417,
      "eon": 4418,
      "eno": 4419,
      "cano_": 4420,
      "itinere_": 4421,
      "hactenus_": 4422,
      "doctor_": 4423,
      "gui": 4424,
      "buc": 4425,
      "ug": 4426,
      "regionis_": 4427,
      "rcc": 4428,
      "mes": 4429,
      "isti": 4430,
      "ipsas_": 4431,
      "tom": 4432,
      "pauci_": 4433,
      "ope_": 4434,
      "aer_": 4435,
      "pa": 4436,
      "thy": 4437,
      "iniquitatem_": 4438,
      "fera": 4439,
      "ese": 4440,
      "dedi_": 4441,
      "capere_": 4442,
      "ld": 4443,
      "fratre_": 4444,
      "raro_": 4445,
      "pi": 4446,
      "momenti_": 4447,
      "cun": 4448,
      "auribus_": 4449,
      "vul": 4450,
      "jd": 4451,
      "fum_": 4452,
      "utuntur_": 4453,
      "crea": 4454,
      "montibus_": 4455,
      "iac": 4456,
      "eru": 4457,
      "acc": 4458,
      "98_": 4459,
      "rra": 4460,
      "op_": 4461,
      "occidit_": 4462,
      "observa": 4463,
      "imperatore_": 4464,
      "etr": 4465,
      "considerandum_": 4466,
      "servum_": 4467,
      "nf": 4468,
      "sos_": 4469,
      "rei": 4470,
      "legatos_": 4471,
      "ura": 4472,
      "mit": 4473,
      "ca": 4474,
      "ortus_": 4475,
      "optimum_": 4476,
      "sa": 4477,
      "gratis_": 4478,
      "cj": 4479,
      "sec_": 4480,
      "hau": 4481,
      "cruce_": 4482,
      "mina": 4483,
      "iam": 4484,
      "humanis_": 4485,
      "reipublicae_": 4486,
      "detur_": 4487,
      "persevera": 4488,
      "humano_": 4489,
      "horre": 4490,
      "futuro_": 4491,
      "fc_": 4492,
      "rand": 4493,
      "erum_": 4494,
      "vx": 4495,
      "orientalis_": 4496,
      "ingressus_": 4497,
      "yel_": 4498,
      "gen": 4499,
      "cy": 4500,
      "sum": 4501,
      "end": 4502,
      "cot": 4503,
      "vena": 4504,
      "here": 4505,
      "artem_": 4506,
      "pontificis_": 4507,
      "vm": 4508,
      "titi": 4509,
      "bert": 4510,
      "aquarum_": 4511,
      "anni": 4512,
      "nullius_": 4513,
      "divinitatis_": 4514,
      "retro_": 4515,
      "quie": 4516,
      "provinciam_": 4517,
      "vu": 4518,
      "universitatis_": 4519,
      "quique_": 4520,
      "principibus_": 4521,
      "populis_": 4522,
      "longius_": 4523,
      "92_": 4524,
      "℟_": 4525,
      "calumnia": 4526,
      "praetor_": 4527,
      "oro_": 4528,
      "thomas_": 4529,
      "veniet_": 4530,
      "ing": 4531,
      "cursu_": 4532,
      "pl_": 4533,
      "mala": 4534,
      "jf": 4535,
      "prodest_": 4536,
      "apostolis_": 4537,
      "uin": 4538,
      "vam_": 4539,
      "tori": 4540,
      "visi": 4541,
      "pietas_": 4542,
      "intra": 4543,
      "divis": 4544,
      "christiani_": 4545,
      "habita_": 4546,
      "cie": 4547,
      "cdu_": 4548,
      "vol": 4549,
      "lis": 4550,
      "fuga_": 4551,
      "2014_": 4552,
      "versa": 4553,
      "servos_": 4554,
      "equitum_": 4555,
      "beneficia_": 4556,
      "animarum_": 4557,
      "und_": 4558,
      "populos_": 4559,
      "ingenium_": 4560,
      "my": 4561,
      "ej": 4562,
      "pri": 4563,
      "prophetam_": 4564,
      "priore_": 4565,
      "faciendum_": 4566,
      "cis": 4567,
      "cla": 4568,
      "th": 4569,
      "ste": 4570,
      "dein_": 4571,
      "sto": 4572,
      "spo": 4573,
      "kr": 4574,
      "geo": 4575,
      "dci_": 4576,
      "arti": 4577,
      "nde_": 4578,
      "lv": 4579,
      "lani": 4580,
      "ilu": 4581,
      "fum": 4582,
      "ure": 4583,
      "tiberi": 4584,
      "nb": 4585,
      "^-_": 4586,
      "ύ": 4587,
      "velim_": 4588,
      "dunt_": 4589,
      "cci": 4590,
      "adc": 4591,
      "nta": 4592,
      "rite_": 4593,
      "cibum_": 4594,
      "tou": 4595,
      "graeca_": 4596,
      "agros_": 4597,
      "aet": 4598,
      "ru": 4599,
      "prop_": 4600,
      "maximi_": 4601,
      "dica": 4602,
      "dic": 4603,
      "cha": 4604,
      "lup": 4605,
      "iner": 4606,
      "ind": 4607,
      "doi": 4608,
      "ait": 4609,
      "aetatem_": 4610,
      "22": 4611,
      "е": 4612,
      "var": 4613,
      "pii_": 4614,
      "libra": 4615,
      "ecclesie_": 4616,
      "cher": 4617,
      "age": 4618,
      "gent": 4619,
      "duri": 4620,
      "origine_": 4621,
      "mortuo_": 4622,
      "gu": 4623,
      "ordines_": 4624,
      "sapi": 4625,
      "adf": 4626,
      "za_": 4627,
      "tame": 4628,
      "jui": 4629,
      "far": 4630,
      "allo": 4631,
      "oportere_": 4632,
      "libertate_": 4633,
      "conjugi": 4634,
      "ys_": 4635,
      "puta": 4636,
      "femina_": 4637,
      "adest_": 4638,
      "pute": 4639,
      "nascitur_": 4640,
      "faci": 4641,
      "enni": 4642,
      "volu": 4643,
      "varia_": 4644,
      "statuit_": 4645,
      "scere_": 4646,
      "ag": 4647,
      "somni": 4648,
      "aber": 4649,
      "possessio_": 4650,
      "ortum_": 4651,
      "exemplis_": 4652,
      "spatio_": 4653,
      "sanct": 4654,
      "itat": 4655,
      "visa_": 4656,
      "sau": 4657,
      "fini": 4658,
      "diff": 4659,
      "mag": 4660,
      "co": 4661,
      "pelle": 4662,
      "natio_": 4663,
      "fm": 4664,
      "yp": 4665,
      "gente_": 4666,
      "vocis_": 4667,
      "venerit_": 4668,
      "flumina_": 4669,
      "integrum_": 4670,
      "uram_": 4671,
      "justi": 4672,
      "antes_": 4673,
      "alle": 4674,
      "suarum_": 4675,
      "simum_": 4676,
      "gravius_": 4677,
      "sidera_": 4678,
      "occupa": 4679,
      "jt": 4680,
      "decipi": 4681,
      "quinquaginta_": 4682,
      "abf": 4683,
      "cir": 4684,
      "we_": 4685,
      "negotium_": 4686,
      "rede": 4687,
      "sola": 4688,
      "senex_": 4689,
      "fecisti_": 4690,
      "eve": 4691,
      "umi": 4692,
      "seu": 4693,
      "indicat_": 4694,
      "hum_": 4695,
      "potuerit_": 4696,
      "moenia_": 4697,
      "bimus_": 4698,
      "theo": 4699,
      "chor": 4700,
      "stri": 4701,
      "pervers": 4702,
      "fim": 4703,
      "enc": 4704,
      "elli": 4705,
      "actiones_": 4706,
      "villa_": 4707,
      "toni": 4708,
      "aie": 4709,
      "sr": 4710,
      "scr_": 4711,
      "ler": 4712,
      "ecl": 4713,
      "cogitationes_": 4714,
      "legatum_": 4715,
      "jm": 4716,
      "ionum_": 4717,
      "lian": 4718,
      "caf": 4719,
      "mori": 4720,
      "cara": 4721,
      "rit": 4722,
      "propinqui": 4723,
      "communiter_": 4724,
      "ras": 4725,
      "rao": 4726,
      "dicant_": 4727,
      "teni": 4728,
      "liis_": 4729,
      "verint_": 4730,
      "pf": 4731,
      "orta_": 4732,
      "ode": 4733,
      "uj": 4734,
      "tand": 4735,
      "rep": 4736,
      "hon": 4737,
      "gan": 4738,
      "societatem_": 4739,
      "saeculum_": 4740,
      "mali": 4741,
      "inii": 4742,
      "grave_": 4743,
      "servorum_": 4744,
      "opinor_": 4745,
      "naturalem_": 4746,
      "nan": 4747,
      "filiae_": 4748,
      "ferrum_": 4749,
      "tui": 4750,
      "testimonio_": 4751,
      "martyri": 4752,
      "exaudi": 4753,
      "concilii_": 4754,
      "beata_": 4755,
      "ald": 4756,
      "imi_": 4757,
      "csse_": 4758,
      "beati": 4759,
      "sat": 4760,
      "religionem_": 4761,
      "inimicos_": 4762,
      "significatio_": 4763,
      "sal_": 4764,
      "py": 4765,
      "he": 4766,
      "quocumque_": 4767,
      "naves_": 4768,
      "lai": 4769,
      "fus_": 4770,
      "dx": 4771,
      "/&_": 4772,
      "valeat_": 4773,
      "sj": 4774,
      "rur": 4775,
      "ome": 4776,
      "nero_": 4777,
      "lle": 4778,
      "entum_": 4779,
      "creata_": 4780,
      "utilitatem_": 4781,
      "trinitatis_": 4782,
      "remi": 4783,
      "meri": 4784,
      "q": 4785,
      "longo_": 4786,
      "lid": 4787,
      "joannis_": 4788,
      "innocenti": 4789,
      "nim": 4790,
      "videamus_": 4791,
      "eosdem_": 4792,
      "versato_": 4793,
      "ogi": 4794,
      "juven": 4795,
      "ba": 4796,
      "uia_": 4797,
      "irae_": 4798,
      "ncc_": 4799,
      "merita_": 4800,
      "judaeorum_": 4801,
      "iu": 4802,
      "herba": 4803,
      "uu": 4804,
      "cii_": 4805,
      "ferre": 4806,
      "dextra_": 4807,
      "cni": 4808,
      "confe": 4809,
      "eccli_": 4810,
      "caetera_": 4811,
      "paris_": 4812,
      "infideli": 4813,
      "praep": 4814,
      "exspecta": 4815,
      "ef_": 4816,
      "una": 4817,
      "tates_": 4818,
      "nj": 4819,
      "contu": 4820,
      "sursum_": 4821,
      "porta_": 4822,
      "feru": 4823,
      "ecu": 4824,
      "dixisset_": 4825,
      "iili": 4826,
      "foedus_": 4827,
      "reliqui_": 4828,
      "peta": 4829,
      "delectatio_": 4830,
      "aeneas_": 4831,
      "hat": 4832,
      "turpi": 4833,
      "ril": 4834,
      "ntiam_": 4835,
      "faciant_": 4836,
      "endam_": 4837,
      "defectus_": 4838,
      "pauperes_": 4839,
      "forum_": 4840,
      "dere": 4841,
      "laur": 4842,
      "6t": 4843,
      "media": 4844,
      "mas": 4845,
      "vola": 4846,
      "titulus_": 4847,
      "supere": 4848,
      "salu": 4849,
      "libero_": 4850,
      "fecerat_": 4851,
      "tenebras_": 4852,
      "part": 4853,
      "linea_": 4854,
      "eca": 4855,
      "molli": 4856,
      "hilari": 4857,
      "ctu": 4858,
      "iani_": 4859,
      "prot": 4860,
      "aequali": 4861,
      "usitat": 4862,
      "publico_": 4863,
      "niae_": 4864,
      "sin": 4865,
      "appetitus_": 4866,
      "udi": 4867,
      "mii": 4868,
      "cola": 4869,
      "cia": 4870,
      "eiusmodi_": 4871,
      "novem_": 4872,
      "miti": 4873,
      "gia_": 4874,
      "boi": 4875,
      "mittit_": 4876,
      "episcoporum_": 4877,
      "opp_": 4878,
      "nos": 4879,
      "ger_": 4880,
      "br": 4881,
      "baptismo_": 4882,
      "tet": 4883,
      "sm": 4884,
      "recipere_": 4885,
      "seo": 4886,
      "œ": 4887,
      "sap_": 4888,
      "crimine_": 4889,
      "subditur_": 4890,
      "officii_": 4891,
      "judici": 4892,
      "dormi": 4893,
      "tiae_": 4894,
      "grat": 4895,
      "divitias_": 4896,
      "differt_": 4897,
      "cic": 4898,
      "pent": 4899,
      "nli": 4900,
      "ni": 4901,
      "gaius_": 4902,
      "caus": 4903,
      "ah": 4904,
      "qoi": 4905,
      "tradit_": 4906,
      "tantis_": 4907,
      "corona_": 4908,
      "beneficio_": 4909,
      "eiu": 4910,
      "tide": 4911,
      "confirma": 4912,
      "rogo_": 4913,
      "reddit_": 4914,
      "rac": 4915,
      "insulae_": 4916,
      "praepara": 4917,
      "epistolam_": 4918,
      "lon": 4919,
      "socia": 4920,
      "num": 4921,
      "gm": 4922,
      "tit": 4923,
      "tes": 4924,
      "aute": 4925,
      "autcm_": 4926,
      "tera": 4927,
      "septuaginta_": 4928,
      "pollice": 4929,
      "historiam_": 4930,
      "francogallice_": 4931,
      "nat": 4932,
      "era": 4933,
      "episcopos_": 4934,
      "net": 4935,
      "ema": 4936,
      "ecit_": 4937,
      "pene_": 4938,
      "gau": 4939,
      "inl": 4940,
      "eth": 4941,
      "philosophi_": 4942,
      "libere_": 4943,
      "rma": 4944,
      "peccat_": 4945,
      "gravi_": 4946,
      "ga": 4947,
      "valenti": 4948,
      "lili": 4949,
      "adh": 4950,
      "vicini": 4951,
      "putas_": 4952,
      "planta": 4953,
      "bd": 4954,
      "ace": 4955,
      "«&_": 4956,
      "pugna": 4957,
      "mentionem_": 4958,
      "foli": 4959,
      "tf_": 4960,
      "leri": 4961,
      "amicum_": 4962,
      "ise": 4963,
      "tare_": 4964,
      "jam": 4965,
      "nico": 4966,
      "fortitudo_": 4967,
      "communio_": 4968,
      "proelio_": 4969,
      "infr": 4970,
      "felici": 4971,
      "hic": 4972,
      "bestia": 4973,
      "rab": 4974,
      "net_": 4975,
      "kar": 4976,
      "iiiª_": 4977,
      "tionibus_": 4978,
      "rom": 4979,
      "mur": 4980,
      "sio": 4981,
      "oram_": 4982,
      "oca": 4983,
      "diligere_": 4984,
      "decreta_": 4985,
      "iq": 4986,
      "ges_": 4987,
      "utra": 4988,
      "gallic": 4989,
      "casa": 4990,
      "vii": 4991,
      "unda": 4992,
      "tat": 4993,
      "plu": 4994,
      "majorem_": 4995,
      "lla": 4996,
      "uan": 4997,
      "praef": 4998,
      "obside": 4999,
      "suc": 5000,
      "ser": 5001,
      "deri": 5002,
      "dignitatis_": 5003,
      "lucius_": 5004,
      "disser": 5005,
      "au": 5006,
      "qni": 5007,
      "lat": 5008,
      "irre": 5009,
      "milli": 5010,
      "coniuncti": 5011,
      "siue_": 5012,
      "prim": 5013,
      "praefectus_": 5014,
      "inco": 5015,
      "ctio_": 5016,
      "praestare_": 5017,
      "paulatim_": 5018,
      "orium_": 5019,
      "imperat": 5020,
      "sg": 5021,
      "rap": 5022,
      "peccare_": 5023,
      "oph": 5024,
      "hia": 5025,
      "fon": 5026,
      "ago_": 5027,
      "tic": 5028,
      "mortua_": 5029,
      "bic": 5030,
      "pate": 5031,
      "lec": 5032,
      "ent": 5033,
      "pronuntia": 5034,
      "place": 5035,
      "jud": 5036,
      "gaudio_": 5037,
      "exter": 5038,
      "desiderio_": 5039,
      "assi": 5040,
      "yn": 5041,
      "revela": 5042,
      "affectu_": 5043,
      "refertur_": 5044,
      "ite": 5045,
      "ciim_": 5046,
      "care": 5047,
      "cardinalis_": 5048,
      "rdi": 5049,
      "naturale_": 5050,
      "esti": 5051,
      "194": 5052,
      "recu": 5053,
      "extremum_": 5054,
      "cela": 5055,
      "toi": 5056,
      "ran": 5057,
      "part_": 5058,
      "ern": 5059,
      "respicit_": 5060,
      "moyses_": 5061,
      "copiis_": 5062,
      "β": 5063,
      "stati": 5064,
      "lol": 5065,
      "hil": 5066,
      "hemi": 5067,
      "plo": 5068,
      "interest_": 5069,
      "fre": 5070,
      "xerit_": 5071,
      "veneris_": 5072,
      "qoa": 5073,
      "nta_": 5074,
      "gend": 5075,
      "requiritur_": 5076,
      "exci": 5077,
      "xxxi_": 5078,
      "timorem_": 5079,
      "restat_": 5080,
      "laudis_": 5081,
      "nst": 5082,
      "indulge": 5083,
      "fortunae_": 5084,
      "pervenire_": 5085,
      "latio_": 5086,
      "accipi_": 5087,
      "pedi": 5088,
      "hit": 5089,
      "graecorum_": 5090,
      "^._": 5091,
      "med_": 5092,
      "versu_": 5093,
      "inli": 5094,
      "diabolo_": 5095,
      "consuetudo_": 5096,
      "viva": 5097,
      "neo": 5098,
      "laboris_": 5099,
      "att": 5100,
      "nla": 5101,
      "lera": 5102,
      "videte_": 5103,
      "versum_": 5104,
      "supp": 5105,
      "ros": 5106,
      "malos_": 5107,
      "bau": 5108,
      "aliquibus_": 5109,
      "prat": 5110,
      "her_": 5111,
      "bona": 5112,
      "laudes_": 5113,
      "portus_": 5114,
      "poc": 5115,
      "historiae_": 5116,
      "vet": 5117,
      "roi": 5118,
      "oce": 5119,
      "menses_": 5120,
      "intendit_": 5121,
      "impera": 5122,
      "africa_": 5123,
      "societate_": 5124,
      "dre": 5125,
      "posit": 5126,
      "nefas_": 5127,
      "mai_": 5128,
      "ses": 5129,
      "servo_": 5130,
      "one": 5131,
      "debetur_": 5132,
      "sub": 5133,
      "quotiens_": 5134,
      "bi": 5135,
      "paru": 5136,
      "communi": 5137,
      "turn": 5138,
      "opo": 5139,
      "fh": 5140,
      "luli": 5141,
      "lica": 5142,
      "hebr_": 5143,
      "dep": 5144,
      "nei": 5145,
      "pondere_": 5146,
      "fu_": 5147,
      "foras_": 5148,
      "diutius_": 5149,
      "quaeso_": 5150,
      "nobili": 5151,
      "facultatem_": 5152,
      "vin": 5153,
      "tq": 5154,
      "probatur_": 5155,
      "praes": 5156,
      "desidera": 5157,
      "op": 5158,
      "emo": 5159,
      "dicas_": 5160,
      "servare_": 5161,
      "rer": 5162,
      "hos": 5163,
      "asser": 5164,
      "app": 5165,
      "cxi": 5166,
      "cant_": 5167,
      "daniel_": 5168,
      "apti": 5169,
      "roga": 5170,
      "fb": 5171,
      "ssimis_": 5172,
      "sia": 5173,
      "noluit_": 5174,
      "nn": 5175,
      "lg": 5176,
      "appellatio_": 5177,
      "ye_": 5178,
      "parentibus_": 5179,
      "mili": 5180,
      "ense_": 5181,
      "cuique_": 5182,
      "sublimi": 5183,
      "nit": 5184,
      "laborem_": 5185,
      "vici": 5186,
      "referre_": 5187,
      "oleum_": 5188,
      "cons_": 5189,
      "vit": 5190,
      "dioecesis_": 5191,
      "cora": 5192,
      "men": 5193,
      "duce": 5194,
      "tv_": 5195,
      "sun": 5196,
      "public_": 5197,
      "creaturam_": 5198,
      "volens_": 5199,
      "gloria": 5200,
      "divi": 5201,
      "exponit_": 5202,
      "cori": 5203,
      "lega": 5204,
      "itan": 5205,
      "amba": 5206,
      "infe": 5207,
      "habe": 5208,
      "evangelii_": 5209,
      "dan": 5210,
      "uia": 5211,
      "muta": 5212,
      "jua": 5213,
      "dul": 5214,
      "agunt_": 5215,
      "sac": 5216,
      "ordi": 5217,
      "luci": 5218,
      "lam": 5219,
      "ignora": 5220,
      "formas_": 5221,
      "confo": 5222,
      "7t": 5223,
      "sto_": 5224,
      "praemia_": 5225,
      "nef": 5226,
      "ica": 5227,
      "geri": 5228,
      "redit_": 5229,
      "plato_": 5230,
      "pietate_": 5231,
      "iustitiam_": 5232,
      "exempli_": 5233,
      "difficili": 5234,
      "ava": 5235,
      "virgi_": 5236,
      "terrena_": 5237,
      "semine_": 5238,
      "oritur_": 5239,
      "gil": 5240,
      "elia": 5241,
      "toc": 5242,
      "pd": 5243,
      "laudibus_": 5244,
      "cem": 5245,
      "xy": 5246,
      "vocabulum_": 5247,
      "rai": 5248,
      "passiones_": 5249,
      "eit": 5250,
      "afl": 5251,
      "liquid": 5252,
      "futuri_": 5253,
      "convenire_": 5254,
      "nl": 5255,
      "lll": 5256,
      "aret_": 5257,
      "unda_": 5258,
      "terminus_": 5259,
      "sermones_": 5260,
      "put": 5261,
      "augustini_": 5262,
      "mortuum_": 5263,
      "morbo_": 5264,
      "xd": 5265,
      "suscipi": 5266,
      "red": 5267,
      "medi": 5268,
      "fonte_": 5269,
      "xxx": 5270,
      "gh": 5271,
      "ment_": 5272,
      "calca": 5273,
      "serva": 5274,
      "patriarcha": 5275,
      "praemissis_": 5276,
      "pid": 5277,
      "noi": 5278,
      "proposito_": 5279,
      "iut": 5280,
      "osus_": 5281,
      "obo": 5282,
      "mam": 5283,
      "legum_": 5284,
      "indica": 5285,
      "uta": 5286,
      "misericordiae_": 5287,
      "constituta_": 5288,
      "regibus_": 5289,
      "nobilis_": 5290,
      "cina": 5291,
      "atti": 5292,
      "perfecte_": 5293,
      "mit_": 5294,
      "audit_": 5295,
      "text": 5296,
      "sag": 5297,
      "rsi": 5298,
      "propheta": 5299,
      "ep": 5300,
      "pofl": 5301,
      "artes_": 5302,
      "servili": 5303,
      "revera_": 5304,
      "decus_": 5305,
      "aca": 5306,
      "sime_": 5307,
      "man": 5308,
      "instar_": 5309,
      "sinus_": 5310,
      "sacerdotum_": 5311,
      "nis": 5312,
      "tl_": 5313,
      "sorti": 5314,
      "scriptores_": 5315,
      "ecclesias_": 5316,
      "sume": 5317,
      "sala": 5318,
      "quodque_": 5319,
      "parti": 5320,
      "vent": 5321,
      "ignorantia_": 5322,
      "fem": 5323,
      "coh": 5324,
      "elementa_": 5325,
      "claus": 5326,
      "calli": 5327,
      "alto_": 5328,
      "184": 5329,
      "dionysius_": 5330,
      "auto": 5331,
      "erg": 5332,
      "cassi": 5333,
      "sati": 5334,
      "prohibet_": 5335,
      "ph": 5336,
      "ingenii_": 5337,
      "tto": 5338,
      "seqq_": 5339,
      "gru": 5340,
      "bacch": 5341,
      "ibi": 5342,
      "epi": 5343,
      "edita_": 5344,
      "deg": 5345,
      "/._": 5346,
      "tiu": 5347,
      "tcn": 5348,
      "km_": 5349,
      "glori": 5350,
      "dar": 5351,
      "cuiusque_": 5352,
      "bc_": 5353,
      "affectum_": 5354,
      "tenuit_": 5355,
      "nutri": 5356,
      "coloni": 5357,
      "vidimus_": 5358,
      "ata": 5359,
      "van": 5360,
      "sque_": 5361,
      "contrario_": 5362,
      "tw": 5363,
      "sanctos_": 5364,
      "præs": 5365,
      "plenum_": 5366,
      "meta": 5367,
      "meni": 5368,
      "magnae_": 5369,
      "lea": 5370,
      "gal_": 5371,
      "bio": 5372,
      "yerb": 5373,
      "moe": 5374,
      "coma": 5375,
      "aia": 5376,
      ",^_": 5377,
      "soror_": 5378,
      "rat": 5379,
      "fortiter_": 5380,
      "feu_": 5381,
      "effe_": 5382,
      "visita": 5383,
      "scienti": 5384,
      "magistri_": 5385,
      "itt": 5386,
      "trop": 5387,
      "nonnullis_": 5388,
      "haberent_": 5389,
      "lina": 5390,
      "immediate_": 5391,
      "ken": 5392,
      "plenius_": 5393,
      "tta": 5394,
      "tangit_": 5395,
      "sc": 5396,
      "lae": 5397,
      "bei": 5398,
      "ando_": 5399,
      "regulari": 5400,
      "publicis_": 5401,
      "absolute_": 5402,
      "nde": 5403,
      "labi": 5404,
      "iar": 5405,
      "ambula": 5406,
      "puni": 5407,
      "dexteram_": 5408,
      "wt": 5409,
      "rata_": 5410,
      "pli_": 5411,
      "acu": 5412,
      "uos": 5413,
      "lectionem_": 5414,
      "lacus_": 5415,
      "eju": 5416,
      "crit_": 5417,
      "propositio_": 5418,
      "iil_": 5419,
      "andi_": 5420,
      "transire_": 5421,
      "qualem_": 5422,
      "pac": 5423,
      "miracula_": 5424,
      "leb": 5425,
      "iol": 5426,
      "hoc": 5427,
      "vai": 5428,
      "eia": 5429,
      "debita_": 5430,
      "cate": 5431,
      "ro": 5432,
      "revi": 5433,
      "cct": 5434,
      "sq": 5435,
      "quu": 5436,
      "isai_": 5437,
      "ctiam_": 5438,
      "vident_": 5439,
      "use": 5440,
      "resurrectionis_": 5441,
      "vie": 5442,
      "sica": 5443,
      "rii": 5444,
      "litteram_": 5445,
      "ins_": 5446,
      "facis_": 5447,
      "adveni": 5448,
      "ι_": 5449,
      "poni_": 5450,
      "iot": 5451,
      "capitulo_": 5452,
      "on_": 5453,
      "ipsae_": 5454,
      "flore": 5455,
      "alo": 5456,
      "alexandri_": 5457,
      "unitas_": 5458,
      "conveniunt_": 5459,
      "visibili": 5460,
      "ria": 5461,
      "cede": 5462,
      "secuti_": 5463,
      "ride": 5464,
      "qe": 5465,
      "i": 5466,
      "his": 5467,
      "ssa": 5468,
      "scripturis_": 5469,
      "phil_": 5470,
      "peti": 5471,
      "ducere_": 5472,
      "conveniens_": 5473,
      "serui": 5474,
      "legi": 5475,
      "cas": 5476,
      "by": 5477,
      "possessionem_": 5478,
      "nig": 5479,
      "male": 5480,
      "habebit_": 5481,
      "aliquos_": 5482,
      "yl": 5483,
      "quc": 5484,
      "llum_": 5485,
      "enu": 5486,
      "uari": 5487,
      "numeri_": 5488,
      "irrita": 5489,
      "fat": 5490,
      "uca": 5491,
      "praecipi": 5492,
      "poni": 5493,
      "poli": 5494,
      "bab": 5495,
      "palla": 5496,
      "negotio_": 5497,
      "llo": 5498,
      "instituta_": 5499,
      "darum_": 5500,
      "cordibus_": 5501,
      "00_": 5502,
      "domin": 5503,
      "ld_": 5504,
      "ile": 5505,
      "cultum_": 5506,
      "conatus_": 5507,
      "falso_": 5508,
      "ona_": 5509,
      "ministerium_": 5510,
      "emi": 5511,
      "dor": 5512,
      "vite": 5513,
      "quat": 5514,
      "lu": 5515,
      "infer": 5516,
      "impo": 5517,
      "diversas_": 5518,
      "cul": 5519,
      "terminum_": 5520,
      "sinu_": 5521,
      "regulam_": 5522,
      "quasdam_": 5523,
      "ost": 5524,
      "libe": 5525,
      "cnti": 5526,
      "assum": 5527,
      "alter": 5528,
      "demi": 5529,
      "qiiod_": 5530,
      "nh": 5531,
      "cursus_": 5532,
      "charitatem_": 5533,
      "animalium_": 5534,
      "rig": 5535,
      "legit_": 5536,
      "lag": 5537,
      "daret_": 5538,
      "bili_": 5539,
      "ais_": 5540,
      "yg": 5541,
      "uod_": 5542,
      "niu": 5543,
      "anima": 5544,
      "hui": 5545,
      "efficaci": 5546,
      "creavit_": 5547,
      "uiu": 5548,
      "nullis_": 5549,
      "libertatis_": 5550,
      "lh": 5551,
      "alu": 5552,
      "tun": 5553,
      "ratus_": 5554,
      "jv_": 5555,
      "iy": 5556,
      "hispanice_": 5557,
      "curia_": 5558,
      "publicum_": 5559,
      "miu": 5560,
      "iiii": 5561,
      "qaa": 5562,
      "poenis_": 5563,
      "pauper_": 5564,
      "iui_": 5565,
      "cognoscend": 5566,
      "chari": 5567,
      "indige": 5568,
      "docere_": 5569,
      "ok": 5570,
      "xxviii_": 5571,
      "vv": 5572,
      "communia_": 5573,
      "ce": 5574,
      "rd": 5575,
      "invoca": 5576,
      "tua": 5577,
      "signo_": 5578,
      "ltu": 5579,
      "exprim": 5580,
      "exp": 5581,
      "ttt": 5582,
      "dai": 5583,
      ".»_": 5584,
      "inno": 5585,
      "contemp": 5586,
      "augusto_": 5587,
      "12": 5588,
      "investiga": 5589,
      "ini": 5590,
      "iiit": 5591,
      "tanti": 5592,
      "converso_": 5593,
      "cili": 5594,
      "approba": 5595,
      "tum": 5596,
      "transit_": 5597,
      "pectus_": 5598,
      "cursum_": 5599,
      "col": 5600,
      "bl": 5601,
      "recusa": 5602,
      "dono_": 5603,
      "adu": 5604,
      "sacrae_": 5605,
      "operi": 5606,
      "veteri_": 5607,
      "inveniuntur_": 5608,
      "ena": 5609,
      "stro": 5610,
      "sentire_": 5611,
      "triumpha": 5612,
      "occidentali_": 5613,
      "homi": 5614,
      "manifeste_": 5615,
      "condidit_": 5616,
      "scripturam_": 5617,
      "optat": 5618,
      "ndu": 5619,
      "litu": 5620,
      "creditur_": 5621,
      "cei": 5622,
      "pectora_": 5623,
      "nian": 5624,
      "deut_": 5625,
      "nul": 5626,
      "credunt_": 5627,
      "famam_": 5628,
      "potuisset_": 5629,
      "maiore_": 5630,
      "ari": 5631,
      "aiunt_": 5632,
      "tau": 5633,
      "saevi": 5634,
      "ritus_": 5635,
      "praeli": 5636,
      "tribu": 5637,
      "fove": 5638,
      "adventu_": 5639,
      "uxore_": 5640,
      "riv": 5641,
      "regionem_": 5642,
      "quan": 5643,
      "ment": 5644,
      "lion": 5645,
      "franciscus_": 5646,
      "tot": 5647,
      "disciplinam_": 5648,
      "annus_": 5649,
      "redire_": 5650,
      "activ": 5651,
      "tribuit_": 5652,
      "positus_": 5653,
      "lang": 5654,
      "bent": 5655,
      "rgi": 5656,
      "persi": 5657,
      "efl": 5658,
      "dri": 5659,
      "asti": 5660,
      "8e": 5661,
      "solemni": 5662,
      "leu": 5663,
      "prof": 5664,
      "pres": 5665,
      "deh": 5666,
      "aliarum_": 5667,
      "116_": 5668,
      "subiectum_": 5669,
      "neri": 5670,
      "eloqui": 5671,
      "war": 5672,
      "presbyter_": 5673,
      "mom": 5674,
      "majus_": 5675,
      "exerciti": 5676,
      "cac": 5677,
      "rna": 5678,
      "hb": 5679,
      "agi_": 5680,
      "benedictionem_": 5681,
      "ster": 5682,
      "provide": 5683,
      "posside": 5684,
      "pm": 5685,
      "iuu": 5686,
      "comiti": 5687,
      "clara_": 5688,
      "cana": 5689,
      "ocu": 5690,
      "minis_": 5691,
      "font": 5692,
      "effer": 5693,
      "copias_": 5694,
      "xxvii_": 5695,
      "tni": 5696,
      "text_": 5697,
      "ris": 5698,
      "ofl": 5699,
      "ngi": 5700,
      "lun": 5701,
      "het": 5702,
      "attinet_": 5703,
      "turba": 5704,
      "tran": 5705,
      "sk": 5706,
      "signat": 5707,
      "repara": 5708,
      "dicit": 5709,
      "aro": 5710,
      "seren": 5711,
      "praese": 5712,
      "cecidit_": 5713,
      "iesus_": 5714,
      "fer": 5715,
      "inclinat": 5716,
      "timu": 5717,
      "ipsi": 5718,
      "sca": 5719,
      "pedum_": 5720,
      "labores_": 5721,
      "jace": 5722,
      "accid": 5723,
      "prie": 5724,
      "omm_": 5725,
      "nous_": 5726,
      "jug": 5727,
      "igni_": 5728,
      "dextera_": 5729,
      "gentem_": 5730,
      "spectat_": 5731,
      "rer_": 5732,
      "cend": 5733,
      "modi": 5734,
      "gessit_": 5735,
      "inca": 5736,
      "universi_": 5737,
      "ry_": 5738,
      "tric": 5739,
      "ons_": 5740,
      "terre": 5741,
      "meli": 5742,
      "solvit_": 5743,
      "quemquam_": 5744,
      "concilia": 5745,
      "pupill": 5746,
      "did": 5747,
      "bea": 5748,
      "occasionem_": 5749,
      "interius_": 5750,
      "adulteri": 5751,
      "sententias_": 5752,
      "notis_": 5753,
      "dou": 5754,
      "pici": 5755,
      "pastor_": 5756,
      "novi": 5757,
      "divi_": 5758,
      "tort": 5759,
      "reh": 5760,
      "ostende": 5761,
      "mentes_": 5762,
      "inten": 5763,
      "nant": 5764,
      "ice": 5765,
      "expositio_": 5766,
      "turri": 5767,
      "res": 5768,
      "cati": 5769,
      "cuti": 5770,
      "syr": 5771,
      "saeculari": 5772,
      "libertas_": 5773,
      "chrysostomus_": 5774,
      "tac": 5775,
      "rid": 5776,
      "regionibus_": 5777,
      "dal": 5778,
      "seneca_": 5779,
      "ordinatur_": 5780,
      "rubr": 5781,
      "uma": 5782,
      "obli": 5783,
      "bli": 5784,
      "sop": 5785,
      "saluta": 5786,
      "nega": 5787,
      "plinius_": 5788,
      "interpretatio_": 5789,
      "ey": 5790,
      "dam": 5791,
      "•&_": 5792,
      "ola_": 5793,
      "fure": 5794,
      "veli": 5795,
      "vd": 5796,
      "km": 5797,
      "dumtaxat_": 5798,
      "adl": 5799,
      "minu": 5800,
      "loquuntur_": 5801,
      "linguis_": 5802,
      "flamma_": 5803,
      "firmat": 5804,
      "usi_": 5805,
      "siti": 5806,
      "proxima_": 5807,
      "oto": 5808,
      "consecra": 5809,
      "scipio_": 5810,
      "locu": 5811,
      "dium_": 5812,
      "mad": 5813,
      "ficti": 5814,
      "jus": 5815,
      "sancti": 5816,
      "nsi": 5817,
      "nimi": 5818,
      "iir": 5819,
      "peu": 5820,
      "excu": 5821,
      "atu": 5822,
      "inc": 5823,
      "fugam_": 5824,
      "discu": 5825,
      "civibus_": 5826,
      "certamen_": 5827,
      "ist": 5828,
      "fce": 5829,
      "elle": 5830,
      "apta": 5831,
      "perpetua_": 5832,
      "gerit_": 5833,
      "unti": 5834,
      "rectum_": 5835,
      "misera": 5836,
      "inueni": 5837,
      "capta_": 5838,
      "ase": 5839,
      "acies_": 5840,
      "quor": 5841,
      "leonis_": 5842,
      "heu_": 5843,
      "respondere_": 5844,
      "osi_": 5845,
      "doc": 5846,
      "refu": 5847,
      "punic": 5848,
      "psalmus_": 5849,
      "otu": 5850,
      "exti": 5851,
      "esc": 5852,
      "augustus_": 5853,
      "iua_": 5854,
      "inducit_": 5855,
      "fidelibus_": 5856,
      "adesse_": 5857,
      "uris_": 5858,
      "sever": 5859,
      "mis": 5860,
      "vasa_": 5861,
      "tant_": 5862,
      "similem_": 5863,
      "proponit_": 5864,
      "mira_": 5865,
      "bae": 5866,
      "tx": 5867,
      "pad": 5868,
      "lumina_": 5869,
      "don": 5870,
      "coc": 5871,
      "saxa_": 5872,
      "reni": 5873,
      "mia_": 5874,
      "dicente_": 5875,
      "auc": 5876,
      "о": 5877,
      "inventa_": 5878,
      "specta": 5879,
      "nubes_": 5880,
      "ei": 5881,
      "à": 5882,
      "tut": 5883,
      "sagitta": 5884,
      "hu_": 5885,
      "serit_": 5886,
      "apostolum_": 5887,
      "obs": 5888,
      "testimonia_": 5889,
      "socios_": 5890,
      "schi": 5891,
      "pericula_": 5892,
      "natur": 5893,
      "brut": 5894,
      "uro_": 5895,
      "principaliter_": 5896,
      "ange": 5897,
      "repert": 5898,
      "nor": 5899,
      "cone": 5900,
      "mil": 5901,
      "lif": 5902,
      "leg": 5903,
      "oleo_": 5904,
      "mulierem_": 5905,
      "jor": 5906,
      "issent_": 5907,
      "instituit_": 5908,
      "patu": 5909,
      "lect_": 5910,
      "but": 5911,
      "victoriam_": 5912,
      "spi": 5913,
      "materiali": 5914,
      "observatorium_": 5915,
      "н": 5916,
      "rol": 5917,
      "juris_": 5918,
      "feria": 5919,
      "vati": 5920,
      "nui": 5921,
      "mann": 5922,
      "portas_": 5923,
      "iuni": 5924,
      "gle": 5925,
      "corrupti": 5926,
      "cerni": 5927,
      "anc": 5928,
      "vicit_": 5929,
      "pote": 5930,
      "lou": 5931,
      "fal": 5932,
      "faciens_": 5933,
      "sinistr": 5934,
      "signa": 5935,
      "ift": 5936,
      "foc": 5937,
      "oracul": 5938,
      "ets": 5939,
      "dti": 5940,
      "zu": 5941,
      "sp": 5942,
      "origo_": 5943,
      "introi": 5944,
      "crat_": 5945,
      "visse_": 5946,
      "urbi_": 5947,
      "premi": 5948,
      "mulieris_": 5949,
      "gi": 5950,
      "generationem_": 5951,
      "ausus_": 5952,
      "commodi": 5953,
      "bin": 5954,
      "votum_": 5955,
      "victus_": 5956,
      "quintus_": 5957,
      "provoca": 5958,
      "objicitur_": 5959,
      "intel": 5960,
      "ew": 5961,
      "ecclesiastica_": 5962,
      "apa": 5963,
      "acco": 5964,
      "villa": 5965,
      "videns_": 5966,
      "colu": 5967,
      "apostolos_": 5968,
      "paucos_": 5969,
      "i3_": 5970,
      "exple": 5971,
      "cns_": 5972,
      "vulnera_": 5973,
      "subtili": 5974,
      "rita": 5975,
      "praeco": 5976,
      "ministrorum_": 5977,
      "inclina": 5978,
      "epit": 5979,
      "dd_": 5980,
      "appar": 5981,
      "js_": 5982,
      "anae_": 5983,
      "23": 5984,
      "tili": 5985,
      "arde": 5986,
      "tris_": 5987,
      "deo": 5988,
      "xo_": 5989,
      "ond": 5990,
      "oer": 5991,
      "nq": 5992,
      "lib": 5993,
      "eme": 5994,
      "dolo_": 5995,
      "consulatum_": 5996,
      "ub": 5997,
      "quas": 5998,
      "obf": 5999,
      "homin": 6000,
      "fep": 6001,
      "alio": 6002,
      "iit": 6003,
      "pie": 6004,
      "itor": 6005,
      "hora": 6006,
      "fluminis_": 6007,
      "colo": 6008,
      "salvatoris_": 6009,
      "patientia_": 6010,
      "mauri": 6011,
      "despera": 6012,
      "benedictus_": 6013,
      "veniunt_": 6014,
      "ueri": 6015,
      "proc": 6016,
      "omo": 6017,
      "fide": 6018,
      "legiones_": 6019,
      "ka_": 6020,
      "ate": 6021,
      "viti": 6022,
      "gy": 6023,
      "enl": 6024,
      "uil": 6025,
      "sle": 6026,
      "plurimis_": 6027,
      "narra": 6028,
      "malle": 6029,
      "icam_": 6030,
      "gin": 6031,
      "exterius_": 6032,
      "ape": 6033,
      "tul": 6034,
      "tristitia_": 6035,
      "mut": 6036,
      "liam_": 6037,
      "hereditatem_": 6038,
      "gd": 6039,
      "apr": 6040,
      "minorem_": 6041,
      "lucr": 6042,
      "lignum_": 6043,
      "emur_": 6044,
      "civis_": 6045,
      "uss": 6046,
      "uol": 6047,
      "imple": 6048,
      "igit": 6049,
      "scelus_": 6050,
      "rati": 6051,
      "exer": 6052,
      "pub": 6053,
      "insidia": 6054,
      "iniuria_": 6055,
      "cs": 6056,
      "affici": 6057,
      "spera": 6058,
      "psalm_": 6059,
      "fid": 6060,
      "erf": 6061,
      "adt": 6062,
      "mittere_": 6063,
      "invita": 6064,
      "gaudia_": 6065,
      "expo": 6066,
      "accessit_": 6067,
      "abest_": 6068,
      "sp_": 6069,
      "dil": 6070,
      "achi": 6071,
      "tna": 6072,
      "sicilia_": 6073,
      "opoli": 6074,
      "mes_": 6075,
      "joa": 6076,
      "accedere_": 6077,
      "vet_": 6078,
      "orientem_": 6079,
      "istae_": 6080,
      "fer_": 6081,
      "din": 6082,
      "aeneae_": 6083,
      "ju": 6084,
      "ier_": 6085,
      "ham_": 6086,
      "remus_": 6087,
      "praedica": 6088,
      "fv": 6089,
      "rod": 6090,
      "ime_": 6091,
      "factae_": 6092,
      "erm": 6093,
      "quilibet_": 6094,
      "inveni": 6095,
      "ephes_": 6096,
      "sollicita": 6097,
      "exit_": 6098,
      "subscripsi_": 6099,
      "singulari_": 6100,
      "pu_": 6101,
      "ito": 6102,
      "fari": 6103,
      "esu": 6104,
      "asia_": 6105,
      "ame": 6106,
      "110_": 6107,
      "til": 6108,
      "summi_": 6109,
      "sie": 6110,
      "impar": 6111,
      "erroris_": 6112,
      "ctor": 6113,
      "qut": 6114,
      "praedictis_": 6115,
      "possimus_": 6116,
      "orta": 6117,
      "gur": 6118,
      "gat_": 6119,
      "tas": 6120,
      "paci": 6121,
      "asp": 6122,
      "uerat_": 6123,
      "statua": 6124,
      "rob": 6125,
      "libr": 6126,
      "fto": 6127,
      "eta_": 6128,
      "cella": 6129,
      "orr": 6130,
      "mena": 6131,
      "irat": 6132,
      "ff": 6133,
      "unicuique_": 6134,
      "trip": 6135,
      "succ": 6136,
      "meu": 6137,
      "fronte_": 6138,
      "dec": 6139,
      "timere_": 6140,
      "tec": 6141,
      "rio": 6142,
      "orti": 6143,
      "opponitur_": 6144,
      "nite": 6145,
      "ya_": 6146,
      "venisse_": 6147,
      "obte": 6148,
      "hii": 6149,
      "arce": 6150,
      "120_": 6151,
      "mul": 6152,
      "gol": 6153,
      "dila": 6154,
      "comple": 6155,
      "chri_": 6156,
      "bv": 6157,
      "pec": 6158,
      "iib": 6159,
      "certis_": 6160,
      "rci": 6161,
      "fiducia_": 6162,
      "aristoteles_": 6163,
      "scis_": 6164,
      "obiectum_": 6165,
      "profu": 6166,
      "nescit_": 6167,
      "marc_": 6168,
      "hf": 6169,
      "te": 6170,
      "ivi": 6171,
      "audie": 6172,
      "ú": 6173,
      "velis_": 6174,
      "tyri": 6175,
      "quel": 6176,
      "exce": 6177,
      "conp": 6178,
      "veni": 6179,
      "sicca": 6180,
      "maximam_": 6181,
      "latini_": 6182,
      "cultu_": 6183,
      "coelestis_": 6184,
      "30": 6185,
      "uxoris_": 6186,
      "sant": 6187,
      "rota": 6188,
      "oratori": 6189,
      "noui": 6190,
      "judicia_": 6191,
      "hispania_": 6192,
      "р": 6193,
      "ym": 6194,
      "xerat_": 6195,
      "pv": 6196,
      "mora": 6197,
      "synodus_": 6198,
      "priorem_": 6199,
      "opera": 6200,
      "obsc": 6201,
      "ny": 6202,
      "frag": 6203,
      "exul": 6204,
      "obtu": 6205,
      "eng": 6206,
      "crib": 6207,
      "cade": 6208,
      "laudat_": 6209,
      "facinus_": 6210,
      "vocantur_": 6211,
      "idea": 6212,
      "dulci": 6213,
      "christ": 6214,
      "apostolo_": 6215,
      "equi_": 6216,
      "cte": 6217,
      "cogno": 6218,
      "bh": 6219,
      "veniens_": 6220,
      "sut": 6221,
      "lle_": 6222,
      "fisc": 6223,
      "direct": 6224,
      "corruptio_": 6225,
      "medicus_": 6226,
      "fatis_": 6227,
      "equos_": 6228,
      "deb": 6229,
      "ax": 6230,
      "sustinere_": 6231,
      "posuerunt_": 6232,
      "lud": 6233,
      "fic_": 6234,
      "appellat_": 6235,
      "ute": 6236,
      "tere": 6237,
      "scen": 6238,
      "inordinat": 6239,
      "exalta": 6240,
      "adju": 6241,
      "puri": 6242,
      "plurimi_": 6243,
      "pol": 6244,
      "experi": 6245,
      "eciam_": 6246,
      "ean": 6247,
      "decan": 6248,
      "tantae_": 6249,
      "rh": 6250,
      "album_": 6251,
      "venera": 6252,
      "unu": 6253,
      "rri": 6254,
      "mif": 6255,
      "ingenti_": 6256,
      "camera": 6257,
      "sima_": 6258,
      "semina_": 6259,
      "impetu_": 6260,
      "ece": 6261,
      "aude": 6262,
      "novis_": 6263,
      "judica": 6264,
      "angu": 6265,
      "regiones_": 6266,
      "pat": 6267,
      "navis_": 6268,
      "dimica": 6269,
      "tol": 6270,
      "sitis_": 6271,
      "sacrum_": 6272,
      "kh": 6273,
      "fuissent_": 6274,
      "fret": 6275,
      "communica": 6276,
      "agendum_": 6277,
      "petr_": 6278,
      "orationes_": 6279,
      "olo": 6280,
      "habitat_": 6281,
      "duci_": 6282,
      "cali": 6283,
      "nun": 6284,
      "indigna": 6285,
      "fatu": 6286,
      "cyr": 6287,
      "causarum_": 6288,
      "eco": 6289,
      "doloris_": 6290,
      "calce": 6291,
      "bas": 6292,
      "spirituali_": 6293,
      "sect": 6294,
      "integra_": 6295,
      "asa": 6296,
      "leo": 6297,
      "ky": 6298,
      "cogitare_": 6299,
      "trag": 6300,
      "propo": 6301,
      "rv": 6302,
      "jac": 6303,
      "eur": 6304,
      "despici": 6305,
      "cionem_": 6306,
      "bf": 6307,
      "amico_": 6308,
      "tendit_": 6309,
      "qr": 6310,
      "nou": 6311,
      "lom": 6312,
      "invenire_": 6313,
      "aequa": 6314,
      "adp": 6315,
      "manifesta_": 6316,
      "gel": 6317,
      "с": 6318,
      "secund": 6319,
      "pice": 6320,
      "feri": 6321,
      "contraria": 6322,
      "»&_": 6323,
      "quibus": 6324,
      "copula": 6325,
      "audivit_": 6326,
      "arma": 6327,
      "sanci": 6328,
      "procedere_": 6329,
      "mathematic": 6330,
      "magistro_": 6331,
      "caritatem_": 6332,
      "caret_": 6333,
      "templa_": 6334,
      "roa": 6335,
      "referri_": 6336,
      "ilium_": 6337,
      "beth": 6338,
      "-": 6339,
      "heredes_": 6340,
      "boe": 6341,
      "vat": 6342,
      "fiii": 6343,
      "cjus_": 6344,
      "chu": 6345,
      "ala": 6346,
      "you_": 6347,
      "tempta": 6348,
      "rie_": 6349,
      "vetu": 6350,
      "ugi": 6351,
      "iustum_": 6352,
      "epo": 6353,
      "cognita_": 6354,
      "accu": 6355,
      "wei": 6356,
      "adhaere": 6357,
      "secreta_": 6358,
      "qus_": 6359,
      "potui_": 6360,
      "consue": 6361,
      "conservat": 6362,
      "tege": 6363,
      "suade": 6364,
      "propon": 6365,
      "oor": 6366,
      "intentionem_": 6367,
      "henricus_": 6368,
      "inj": 6369,
      "esta": 6370,
      "inveniri_": 6371,
      "gori": 6372,
      "digni": 6373,
      "jj_": 6374,
      "ant": 6375,
      "scribendum_": 6376,
      "omm": 6377,
      "fidi": 6378,
      "dien": 6379,
      "102_": 6380,
      "eu": 6381,
      "qualibet_": 6382,
      "praecepit_": 6383,
      "istos_": 6384,
      "abs_": 6385,
      "στ": 6386,
      "versibus_": 6387,
      "ipa": 6388,
      "attamen_": 6389,
      "unitate_": 6390,
      "umb": 6391,
      "superbiam_": 6392,
      "impedi": 6393,
      "fur": 6394,
      "fueri": 6395,
      "sensibus_": 6396,
      "diceretur_": 6397,
      "auo": 6398,
      "aeternae_": 6399,
      "coeperunt_": 6400,
      "replet": 6401,
      "portam_": 6402,
      "nonnulla_": 6403,
      "entium_": 6404,
      "108_": 6405,
      "wu": 6406,
      "sing": 6407,
      "sic": 6408,
      "adversa_": 6409,
      "torem_": 6410,
      "rsa": 6411,
      "nse": 6412,
      "mpl": 6413,
      "memor_": 6414,
      "liv": 6415,
      "volueri": 6416,
      "oriente_": 6417,
      "lyc": 6418,
      "cil": 6419,
      "appropinqua": 6420,
      "oda": 6421,
      "mh": 6422,
      "hac": 6423,
      "ebi": 6424,
      "è_": 6425,
      "tecta_": 6426,
      "quodlibet_": 6427,
      "paro": 6428,
      "orator_": 6429,
      "fou": 6430,
      "phoeb": 6431,
      "line": 6432,
      "arbitra": 6433,
      "tus": 6434,
      "ilio_": 6435,
      "franci": 6436,
      "equo_": 6437,
      "ecclefia": 6438,
      "aurea_": 6439,
      "placid": 6440,
      "adhibit": 6441,
      "stimul": 6442,
      "sera": 6443,
      "natura": 6444,
      "evangeli": 6445,
      "quali": 6446,
      "quadri": 6447,
      "fabrica": 6448,
      "differunt_": 6449,
      "/^_": 6450,
      "vaga": 6451,
      "universalis_": 6452,
      "nuua_": 6453,
      "menti_": 6454,
      "guberna": 6455,
      "ens": 6456,
      "elegit_": 6457,
      "ager_": 6458,
      "onmi": 6459,
      "numera": 6460,
      "judices_": 6461,
      "commerci": 6462,
      "aequalis_": 6463,
      "166": 6464,
      "iat_": 6465,
      "sanctam_": 6466,
      "ruit_": 6467,
      "reple": 6468,
      "pep": 6469,
      "exhibe": 6470,
      "dd": 6471,
      "bili": 6472,
      "bie": 6473,
      "beni": 6474,
      "submi": 6475,
      "pessim": 6476,
      "cuncta": 6477,
      "coniugi": 6478,
      "cat": 6479,
      "profer": 6480,
      "art": 6481,
      "retic": 6482,
      "lb": 6483,
      "accipi": 6484,
      "victori": 6485,
      "argument": 6486,
      "tue": 6487,
      "oia": 6488,
      "negare_": 6489,
      "sanat": 6490,
      "qv": 6491,
      "fif": 6492,
      "fei": 6493,
      "sile": 6494,
      "rationalis_": 6495,
      "pacific": 6496,
      "marc": 6497,
      "iem_": 6498,
      "ido": 6499,
      "dice": 6500,
      "conspici": 6501,
      "105_": 6502,
      "uale": 6503,
      "xxxii_": 6504,
      "nari": 6505,
      "fuer": 6506,
      "concede": 6507,
      "appo": 6508,
      "propri": 6509,
      "postula": 6510,
      "mos": 6511,
      "humili": 6512,
      "div_": 6513,
      "cong": 6514,
      "acie_": 6515,
      "ilh": 6516,
      "franc": 6517,
      "eti_": 6518,
      "annuntia": 6519,
      "tre_": 6520,
      "rel": 6521,
      "mod": 6522,
      "crucem_": 6523,
      "coni_": 6524,
      "proxime_": 6525,
      "nive": 6526,
      "cipi": 6527,
      "philippus_": 6528,
      "missi_": 6529,
      "imur_": 6530,
      "ignot": 6531,
      "georgi": 6532,
      "gallia_": 6533,
      "107_": 6534,
      "tcr_": 6535,
      "script": 6536,
      "nover": 6537,
      "gra_": 6538,
      "ceteros_": 6539,
      "veterum_": 6540,
      "obru": 6541,
      "mor_": 6542,
      "minores_": 6543,
      "ze_": 6544,
      "xxix_": 6545,
      "universum_": 6546,
      "obsta": 6547,
      "manere_": 6548,
      "inpu": 6549,
      "celebrat": 6550,
      "2008_": 6551,
      "utt": 6552,
      "pretios": 6553,
      "phe": 6554,
      "ner_": 6555,
      "licentia_": 6556,
      "ipt": 6557,
      "composita_": 6558,
      "aciem_": 6559,
      "matri": 6560,
      "dictae_": 6561,
      "cse": 6562,
      "philosophia_": 6563,
      "dg": 6564,
      "contra": 6565,
      "xim": 6566,
      "tissim": 6567,
      "suh": 6568,
      "radio": 6569,
      "nobi": 6570,
      "nere_": 6571,
      "muros_": 6572,
      "animalibus_": 6573,
      "literis_": 6574,
      "andi": 6575,
      "tribunus_": 6576,
      "octavo_": 6577,
      "gs": 6578,
      "ax_": 6579,
      "societas_": 6580,
      "incomp": 6581,
      "salvator_": 6582,
      "pt_": 6583,
      "officiis_": 6584,
      "endis_": 6585,
      "cœl": 6586,
      "apoc_": 6587,
      "anth": 6588,
      "ux_": 6589,
      "sec": 6590,
      "anta": 6591,
      "wil": 6592,
      "summo": 6593,
      "arn": 6594,
      "turum_": 6595,
      "tk": 6596,
      "heredem_": 6597,
      "fel": 6598,
      "arat": 6599,
      "altum_": 6600,
      "pollu": 6601,
      "oin": 6602,
      "etp": 6603,
      "cst": 6604,
      "cala": 6605,
      "putare": 6606,
      "fice": 6607,
      "color_": 6608,
      "christianus_": 6609,
      "riti": 6610,
      "oba": 6611,
      "ambigu": 6612,
      "rec": 6613,
      "axi": 6614,
      "adiect": 6615,
      "significare_": 6616,
      "verant_": 6617,
      "nosse_": 6618,
      "fundamentum_": 6619,
      "emenda": 6620,
      "yers": 6621,
      "labora": 6622,
      "cognoscitur_": 6623,
      "tyr": 6624,
      "remo": 6625,
      "loquendi_": 6626,
      "fact": 6627,
      "cibo_": 6628,
      "fastidi": 6629,
      "culis_": 6630,
      "cd_": 6631,
      "artibus_": 6632,
      "abunda": 6633,
      "ω": 6634,
      "roni": 6635,
      "rali": 6636,
      "insidias_": 6637,
      "ein": 6638,
      "bar_": 6639,
      "sav": 6640,
      "ont_": 6641,
      "candid": 6642,
      "retribu": 6643,
      "monach": 6644,
      "firmi": 6645,
      "dcr": 6646,
      "consenti": 6647,
      "aua": 6648,
      "tudinem_": 6649,
      "consideratio_": 6650,
      "bilia_": 6651,
      "ano": 6652,
      "aes": 6653,
      "vif": 6654,
      "sider": 6655,
      "rapi": 6656,
      "lor": 6657,
      "aiu": 6658,
      "mysterium_": 6659,
      "matrimonio_": 6660,
      "inem_": 6661,
      "ulti": 6662,
      "placere_": 6663,
      "man_": 6664,
      "cog": 6665,
      "ccr": 6666,
      "tou_": 6667,
      "seru": 6668,
      "phil": 6669,
      "perinde_": 6670,
      "oq": 6671,
      "40": 6672,
      "rte": 6673,
      "pos_": 6674,
      "tracta": 6675,
      "thu": 6676,
      "qux_": 6677,
      "vultu_": 6678,
      "utili": 6679,
      "quce_": 6680,
      "moti": 6681,
      "late": 6682,
      "exsulta": 6683,
      "solutio_": 6684,
      "mv": 6685,
      "latis_": 6686,
      "106_": 6687,
      "extrane": 6688,
      "domi": 6689,
      "ath": 6690,
      "altior": 6691,
      "haeresi": 6692,
      "deputat": 6693,
      "colore_": 6694,
      "blandi": 6695,
      "babe": 6696,
      "obedi": 6697,
      "noa_": 6698,
      "fave": 6699,
      "exemplar_": 6700,
      "essi": 6701,
      "crimina_": 6702,
      "praesidio_": 6703,
      "muu": 6704,
      "judex_": 6705,
      "ion": 6706,
      "contulit_": 6707,
      "conli": 6708,
      "aul": 6709,
      "sani": 6710,
      "pani": 6711,
      ".,_": 6712,
      "juva": 6713,
      "determinat_": 6714,
      "decima": 6715,
      "and": 6716,
      "prioris_": 6717,
      "pomp": 6718,
      "poenitentiae_": 6719,
      "festum_": 6720,
      "disputat": 6721,
      "amplissim": 6722,
      "ab": 6723,
      "pugnam_": 6724,
      "invide": 6725,
      "imperi": 6726,
      "iiti": 6727,
      "discipulos_": 6728,
      "carmine_": 6729,
      "inept": 6730,
      "bar": 6731,
      "spd_": 6732,
      "humilia": 6733,
      "fro": 6734,
      "equis_": 6735,
      "defectum_": 6736,
      "cael": 6737,
      "accepta": 6738,
      "zar": 6739,
      "familiari": 6740,
      "describit_": 6741,
      "argumenta_": 6742,
      "cxc": 6743,
      "agrum_": 6744,
      "quia": 6745,
      "perpe": 6746,
      "ida_": 6747,
      "183": 6748,
      "testi": 6749,
      "spei_": 6750,
      "notitiam_": 6751,
      "lore": 6752,
      "iic": 6753,
      "consulibus_": 6754,
      "ose": 6755,
      "calv": 6756,
      "bm": 6757,
      "adde": 6758,
      "palli": 6759,
      "dr": 6760,
      "suo": 6761,
      "sepeli": 6762,
      "ror": 6763,
      "mqu": 6764,
      "hom": 6765,
      "opem_": 6766,
      "nio": 6767,
      "efficitur_": 6768,
      "deter": 6769,
      "ulus_": 6770,
      "oculus_": 6771,
      "mercedem_": 6772,
      "divisa_": 6773,
      "adde_": 6774,
      "sumitur_": 6775,
      "severi": 6776,
      "154": 6777,
      "veloci": 6778,
      "utro": 6779,
      "reb": 6780,
      "rar": 6781,
      "pridem_": 6782,
      "hie_": 6783,
      "casum_": 6784,
      "amicorum_": 6785,
      "affer": 6786,
      "quaere": 6787,
      "praeceptor": 6788,
      "ort": 6789,
      "lus": 6790,
      "litore_": 6791,
      "later": 6792,
      "administra": 6793,
      "200_": 6794,
      "perfectus_": 6795,
      "lapides_": 6796,
      "habuerit_": 6797,
      "etu": 6798,
      "vocari_": 6799,
      "vivunt_": 6800,
      "urge": 6801,
      "textus_": 6802,
      "optima_": 6803,
      "judaei_": 6804,
      "facias_": 6805,
      "benedictio_": 6806,
      "tho": 6807,
      "persequ": 6808,
      "excita": 6809,
      "45": 6810,
      "scy": 6811,
      "rhe": 6812,
      "lapis_": 6813,
      "kalendas_": 6814,
      "institutum_": 6815,
      "inhabita": 6816,
      "inesse_": 6817,
      "compl": 6818,
      "bia_": 6819,
      "vesc": 6820,
      "consule_": 6821,
      "ccc": 6822,
      "?&_": 6823,
      "ntin": 6824,
      "italic": 6825,
      "ioannis_": 6826,
      "imum_": 6827,
      "gunt_": 6828,
      "ania": 6829,
      "suspens": 6830,
      "iua": 6831,
      "inimicus_": 6832,
      "habuerunt_": 6833,
      "reg": 6834,
      "lor_": 6835,
      "fuere_": 6836,
      "fis": 6837,
      "destina": 6838,
      "tuu": 6839,
      "desiderat_": 6840,
      "angel": 6841,
      "tolle": 6842,
      "stal": 6843,
      "init": 6844,
      "gas": 6845,
      "fy": 6846,
      "doctores_": 6847,
      "onia_": 6848,
      "off_": 6849,
      "lique": 6850,
      "dubita": 6851,
      "test": 6852,
      "superficie": 6853,
      "puer": 6854,
      "nsu": 6855,
      "operationem_": 6856,
      "ks": 6857,
      "amicitiam_": 6858,
      "pyrenaei_": 6859,
      "oblit": 6860,
      "iss": 6861,
      "fest": 6862,
      "ans": 6863,
      "vene": 6864,
      "ude": 6865,
      "significant_": 6866,
      "quavis_": 6867,
      "prses": 6868,
      "issime_": 6869,
      "bir": 6870,
      "acta": 6871,
      "φ": 6872,
      "subjici": 6873,
      "sab": 6874,
      "lce": 6875,
      "fame_": 6876,
      "eva": 6877,
      "ë": 6878,
      "gravi": 6879,
      "yv": 6880,
      "ra": 6881,
      "spiritali": 6882,
      "sociis_": 6883,
      "halm_": 6884,
      "se": 6885,
      "scit": 6886,
      "nup": 6887,
      "laetitia_": 6888,
      "vana_": 6889,
      "tellus_": 6890,
      "phor": 6891,
      "lini": 6892,
      "donati": 6893,
      "coli": 6894,
      "codicibus_": 6895,
      "christianae_": 6896,
      "domai_": 6897,
      "dita": 6898,
      "ust": 6899,
      "heins_": 6900,
      "congregatio_": 6901,
      "cdi": 6902,
      "ccl": 6903,
      "terra": 6904,
      "iso": 6905,
      "quinta_": 6906,
      "primi": 6907,
      "mete": 6908,
      "impetus_": 6909,
      "suf": 6910,
      "cuius": 6911,
      "celeri": 6912,
      "accurate_": 6913,
      "196": 6914,
      "118_": 6915,
      "vivi": 6916,
      "virgin": 6917,
      "per": 6918,
      "mti": 6919,
      "istorum_": 6920,
      "berg": 6921,
      "48": 6922,
      "praeteri": 6923,
      "lra": 6924,
      "denega": 6925,
      "pos": 6926,
      "kn": 6927,
      "detine": 6928,
      "universis_": 6929,
      "stru": 6930,
      "posterius_": 6931,
      "lov": 6932,
      "ko_": 6933,
      "invi": 6934,
      "imm": 6935,
      "vivo_": 6936,
      "pur": 6937,
      "mc": 6938,
      "lal": 6939,
      "kat": 6940,
      "ire": 6941,
      "horatius_": 6942,
      "germ": 6943,
      "dj": 6944,
      "agno": 6945,
      "uar": 6946,
      "sancte_": 6947,
      "alieno_": 6948,
      "115_": 6949,
      "ssi_": 6950,
      "sentit_": 6951,
      "sang": 6952,
      "proveni": 6953,
      "peccator_": 6954,
      "ngu": 6955,
      "hospiti": 6956,
      "curs": 6957,
      "cera": 6958,
      "yb": 6959,
      "onu": 6960,
      "nasci_": 6961,
      "maioris_": 6962,
      "credidit_": 6963,
      "baptismus_": 6964,
      "atte": 6965,
      "uiti": 6966,
      "filia": 6967,
      "udo_": 6968,
      "lir": 6969,
      "eui": 6970,
      "pond": 6971,
      "nnt_": 6972,
      "181": 6973,
      "responsum_": 6974,
      "quer": 6975,
      "plat": 6976,
      "ministri_": 6977,
      "uinc": 6978,
      "ueni": 6979,
      "peritus_": 6980,
      "macula": 6981,
      "facio_": 6982,
      "argenti_": 6983,
      "pali": 6984,
      "manda": 6985,
      "intima": 6986,
      "compositum_": 6987,
      "attribu": 6988,
      "tantu": 6989,
      "quil": 6990,
      "llan": 6991,
      "’_": 6992,
      "mensuram_": 6993,
      "inh": 6994,
      "gio_": 6995,
      "cus": 6996,
      "burg": 6997,
      "sece": 6998,
      "ration": 6999,
      "graecos_": 7000,
      "deli": 7001,
      "decu": 7002,
      "datis_": 7003,
      "ces": 7004,
      "agitat": 7005,
      "vocavit_": 7006,
      "tractatu": 7007,
      "tav": 7008,
      "oy": 7009,
      "mansit_": 7010,
      "erra": 7011,
      "è": 7012,
      "siu": 7013,
      "hof": 7014,
      "ers": 7015,
      "utrique_": 7016,
      "haere": 7017,
      "alb": 7018,
      "cuni_": 7019,
      "sura": 7020,
      "sap": 7021,
      "pho": 7022,
      "mie": 7023,
      "centi": 7024,
      "situs_": 7025,
      "servis_": 7026,
      "rb": 7027,
      "lod": 7028,
      "ener": 7029,
      "rni": 7030,
      "reperi": 7031,
      "imper": 7032,
      "barth": 7033,
      "antonio_": 7034,
      "all_": 7035,
      "adiu": 7036,
      "104_": 7037,
      "ting": 7038,
      "oy_": 7039,
      "disciplinae_": 7040,
      "oro": 7041,
      "vergili": 7042,
      "sx": 7043,
      "quen": 7044,
      "praedicant": 7045,
      "opti": 7046,
      "ecclefia_": 7047,
      "dentes_": 7048,
      "curva": 7049,
      "comitatu_": 7050,
      "viderunt_": 7051,
      "versi": 7052,
      "tudi_": 7053,
      "quantitatem_": 7054,
      "nia": 7055,
      "miser_": 7056,
      "imputa": 7057,
      "grandi": 7058,
      "consequitur_": 7059,
      "boni": 7060,
      "ast": 7061,
      "teg": 7062,
      "omitt": 7063,
      "exten": 7064,
      "defini": 7065,
      "qc": 7066,
      "ezech_": 7067,
      "desuper_": 7068,
      "voca": 7069,
      "angelo_": 7070,
      "sextum_": 7071,
      "quot": 7072,
      "lapidem_": 7073,
      "fs": 7074,
      "fabius_": 7075,
      "tristi": 7076,
      "pede_": 7077,
      "minore_": 7078,
      "institut": 7079,
      "immine": 7080,
      "ilia": 7081,
      "concludit_": 7082,
      "vulgat": 7083,
      "misericordi": 7084,
      "excipi": 7085,
      "dum": 7086,
      "videat_": 7087,
      "veru": 7088,
      "tractatus_": 7089,
      "terenti": 7090,
      "synodum_": 7091,
      "significat": 7092,
      "sequentibus_": 7093,
      "ong": 7094,
      "oli_": 7095,
      "metum_": 7096,
      "fortunam_": 7097,
      "vous_": 7098,
      "sium_": 7099,
      "puls": 7100,
      "gladium_": 7101,
      "enta": 7102,
      "aph": 7103,
      "gom": 7104,
      "etic": 7105,
      "daemoni": 7106,
      "arit": 7107,
      "uor": 7108,
      "qj": 7109,
      "probare_": 7110,
      "minat": 7111,
      "ixi": 7112,
      "bem": 7113,
      "abbati": 7114,
      "vei_": 7115,
      "scr": 7116,
      "rura_": 7117,
      "ques": 7118,
      "quati": 7119,
      "big": 7120,
      "area_": 7121,
      "109_": 7122,
      "yr": 7123,
      "sciens_": 7124,
      "osa": 7125,
      "inferior_": 7126,
      "defer": 7127,
      "adhibe": 7128,
      "tranquill": 7129,
      "nga": 7130,
      "library_": 7131,
      "itu": 7132,
      "bt_": 7133,
      "ulat": 7134,
      "queri": 7135,
      "iim": 7136,
      "tica_": 7137,
      "stabili": 7138,
      "pronuntiat": 7139,
      "exor": 7140,
      "devot": 7141,
      "cle": 7142,
      "tura": 7143,
      "teneri_": 7144,
      "rude": 7145,
      "rediit_": 7146,
      "quib": 7147,
      "puerum_": 7148,
      "esuri": 7149,
      "ella": 7150,
      "edit": 7151,
      "dist": 7152,
      "musa": 7153,
      "distinct": 7154,
      "aegypti_": 7155,
      "was_": 7156,
      "idc": 7157,
      "generali": 7158,
      "fpe": 7159,
      "dile": 7160,
      "xxxv_": 7161,
      "nra": 7162,
      "mui": 7163,
      "laba": 7164,
      "expedit": 7165,
      "t6_": 7166,
      "mica": 7167,
      "liabe": 7168,
      "aud": 7169,
      "totaliter_": 7170,
      "orm": 7171,
      "fict": 7172,
      "arcus_": 7173,
      "aest": 7174,
      "ή": 7175,
      "vict": 7176,
      "elegi": 7177,
      "tro_": 7178,
      "sequenti_": 7179,
      "progredi": 7180,
      "neglig": 7181,
      "tradunt_": 7182,
      "terminos_": 7183,
      "publi": 7184,
      "dom": 7185,
      "conser": 7186,
      "totidem_": 7187,
      "somno_": 7188,
      "sara": 7189,
      "rend": 7190,
      "oat": 7191,
      "exitus_": 7192,
      "bit": 7193,
      "agnosce": 7194,
      "top": 7195,
      "principiis_": 7196,
      "cognovit_": 7197,
      "ipfe_": 7198,
      "inmi": 7199,
      "los": 7200,
      "eba": 7201,
      "dignitas_": 7202,
      "virgini": 7203,
      "sacerdotibus_": 7204,
      "perit_": 7205,
      "ota": 7206,
      "itc": 7207,
      "immola": 7208,
      "heri": 7209,
      "ftu": 7210,
      "disci": 7211,
      "dilect": 7212,
      "clan": 7213,
      "agat_": 7214,
      "temperat": 7215,
      "sigill": 7216,
      "aequo_": 7217,
      "abiit_": 7218,
      "zt": 7219,
      "ule": 7220,
      "tima": 7221,
      "tect": 7222,
      "seipso_": 7223,
      "salva": 7224,
      "prou": 7225,
      "propriae_": 7226,
      "qi_": 7227,
      "hum": 7228,
      "generaliter_": 7229,
      "dol": 7230,
      "lri": 7231,
      "isl": 7232,
      "ducatu": 7233,
      "†_": 7234,
      "©_": 7235,
      "rior": 7236,
      "reddidit_": 7237,
      "proli": 7238,
      "nosc": 7239,
      "mendacium_": 7240,
      "magnitudo_": 7241,
      "dilectionem_": 7242,
      "campo_": 7243,
      "ova": 7244,
      "orare_": 7245,
      "condicione_": 7246,
      "alt": 7247,
      "tusc": 7248,
      "spirit": 7249,
      "sj_": 7250,
      "pascha_": 7251,
      "meorum_": 7252,
      "ctat": 7253,
      "subt": 7254,
      "sequens_": 7255,
      "scul": 7256,
      "picta": 7257,
      "dend": 7258,
      "curae_": 7259,
      "artus_": 7260,
      "vester_": 7261,
      "septi": 7262,
      "rev": 7263,
      "qul": 7264,
      "placa": 7265,
      "ingenu": 7266,
      "devora": 7267,
      "contendit_": 7268,
      "venia": 7269,
      "sæcul": 7270,
      "lenti": 7271,
      "iat": 7272,
      "conserva": 7273,
      "alf": 7274,
      "hahe": 7275,
      "done": 7276,
      "tae": 7277,
      "gam": 7278,
      "cret": 7279,
      "classis_": 7280,
      "my_": 7281,
      "iudex_": 7282,
      "dilectionis_": 7283,
      "dici": 7284,
      "arc": 7285,
      "uu_": 7286,
      "universitas_": 7287,
      "udi_": 7288,
      "uce": 7289,
      "scribitur_": 7290,
      "prode": 7291,
      "hia_": 7292,
      "voto_": 7293,
      "rd_": 7294,
      "priori_": 7295,
      "insinua": 7296,
      "eripi": 7297,
      "cujus": 7298,
      "circums": 7299,
      "vitios": 7300,
      "tion": 7301,
      "rui": 7302,
      "ieri": 7303,
      "probabili": 7304,
      "ignar": 7305,
      "gratio": 7306,
      "familias_": 7307,
      "serunt_": 7308,
      "figurat": 7309,
      "trai": 7310,
      "qnae_": 7311,
      "prophetas_": 7312,
      "defendere_": 7313,
      "defe": 7314,
      "decer": 7315,
      "coronam_": 7316,
      "aure": 7317,
      "vem": 7318,
      "excludit_": 7319,
      "constitutum_": 7320,
      "commi": 7321,
      "ang": 7322,
      "sexu": 7323,
      "pseudo": 7324,
      "praeparat": 7325,
      "nimia_": 7326,
      "kei": 7327,
      "crudeli": 7328,
      "cru": 7329,
      "capi": 7330,
      "verae_": 7331,
      "auct": 7332,
      "nutrit": 7333,
      "led": 7334,
      "habc": 7335,
      "derunt_": 7336,
      "ama": 7337,
      "tif": 7338,
      "sequatur_": 7339,
      "senator_": 7340,
      "perfer": 7341,
      "negati": 7342,
      "isla": 7343,
      "dole": 7344,
      "subst": 7345,
      "perg": 7346,
      "mediis_": 7347,
      "deficit_": 7348,
      "valere_": 7349,
      "trin": 7350,
      "tradita_": 7351,
      "sapientes_": 7352,
      "romanam_": 7353,
      "rct": 7354,
      "iesu_": 7355,
      "hari": 7356,
      "diligi": 7357,
      "ador": 7358,
      "actis_": 7359,
      "sona": 7360,
      "singulas_": 7361,
      "psalmi_": 7362,
      "pone": 7363,
      "inse": 7364,
      "doli": 7365,
      "levi": 7366,
      "larg": 7367,
      "hg": 7368,
      "squ": 7369,
      "scandal": 7370,
      "litus_": 7371,
      "dicetur_": 7372,
      "aic": 7373,
      "superest_": 7374,
      "jb": 7375,
      "inimicis_": 7376,
      "hci": 7377,
      "furi": 7378,
      "univers": 7379,
      "nom_": 7380,
      "gnat": 7381,
      "dederit_": 7382,
      "custodia_": 7383,
      "parentum_": 7384,
      "iusta_": 7385,
      "caesare_": 7386,
      "24": 7387,
      "ssim": 7388,
      "praestat_": 7389,
      "praeceptis_": 7390,
      "posi": 7391,
      "nescimus_": 7392,
      "latin_": 7393,
      "dua": 7394,
      "congre": 7395,
      "122": 7396,
      "restitu": 7397,
      "missis_": 7398,
      "icere_": 7399,
      "capit_": 7400,
      "singuli_": 7401,
      "purgat": 7402,
      "primor": 7403,
      "miseria": 7404,
      "loi": 7405,
      "kin": 7406,
      "ivum_": 7407,
      "hat_": 7408,
      "bie_": 7409,
      "yit_": 7410,
      "utramque_": 7411,
      "ttu": 7412,
      "miseri": 7413,
      "let_": 7414,
      "uat": 7415,
      "spars": 7416,
      "obliqu": 7417,
      "arid": 7418,
      "xxxiii_": 7419,
      "quendam_": 7420,
      "limi": 7421,
      "fortes_": 7422,
      "dicta": 7423,
      "citius_": 7424,
      "aevo_": 7425,
      "scut": 7426,
      "philosophiae_": 7427,
      "ism": 7428,
      "tuo": 7429,
      "super": 7430,
      "pompeius_": 7431,
      "juss": 7432,
      "joseph_": 7433,
      "errores_": 7434,
      "stetit_": 7435,
      "respu": 7436,
      "press": 7437,
      "literas_": 7438,
      "intelligatur_": 7439,
      "canonica": 7440,
      "anic": 7441,
      "paf": 7442,
      "cornelius_": 7443,
      "acce": 7444,
      "operari_": 7445,
      "ndr": 7446,
      "inqui": 7447,
      "festo_": 7448,
      "deberet_": 7449,
      "92": 7450,
      "121": 7451,
      "pant": 7452,
      "merces_": 7453,
      "ius": 7454,
      "fed": 7455,
      "contigit_": 7456,
      "come": 7457,
      "thc_": 7458,
      "priores_": 7459,
      "multiplica": 7460,
      "bii": 7461,
      "xq": 7462,
      "trum_": 7463,
      "nifi_": 7464,
      "mystic": 7465,
      "mpt": 7466,
      "corre": 7467,
      "corni": 7468,
      "att_": 7469,
      "prop": 7470,
      "leve": 7471,
      "issimum_": 7472,
      "ioi": 7473,
      "iai": 7474,
      "gratum_": 7475,
      "ferme_": 7476,
      "explica": 7477,
      "cini": 7478,
      "sententiis_": 7479,
      "neca": 7480,
      "macedonia": 7481,
      "improb": 7482,
      "fontem_": 7483,
      "arct": 7484,
      "nominatur_": 7485,
      "fructu_": 7486,
      "confer": 7487,
      "abo": 7488,
      "ssem_": 7489,
      "repeti": 7490,
      "lta": 7491,
      "iir_": 7492,
      "brevis_": 7493,
      "augur": 7494,
      "appareat_": 7495,
      "perag": 7496,
      "obj": 7497,
      "mortuorum_": 7498,
      "martyrum_": 7499,
      "inconveniens_": 7500,
      "erb": 7501,
      "consci": 7502,
      "bere_": 7503,
      "bene": 7504,
      "stil": 7505,
      "igno": 7506,
      "andum_": 7507,
      "103_": 7508,
      "ordinati": 7509,
      "factio_": 7510,
      "ete_": 7511,
      "easdem_": 7512,
      "cal_": 7513,
      "vindica": 7514,
      "vasta": 7515,
      "mortuos_": 7516,
      "morbi_": 7517,
      "mf_": 7518,
      "fam_": 7519,
      "expos": 7520,
      "vige": 7521,
      "singulorum_": 7522,
      "sde": 7523,
      "oculorum_": 7524,
      "nominatus_": 7525,
      "incommod": 7526,
      "cardinali": 7527,
      "muli": 7528,
      "solvend": 7529,
      "scripti_": 7530,
      "rib": 7531,
      "nomi": 7532,
      "nae": 7533,
      "iniquitas_": 7534,
      "epistula_": 7535,
      "jt_": 7536,
      "clama": 7537,
      "biis_": 7538,
      "8u": 7539,
      "ntr": 7540,
      "mna": 7541,
      "ignes_": 7542,
      "exf": 7543,
      "dim": 7544,
      "aug": 7545,
      "arie": 7546,
      "argu": 7547,
      "suppl": 7548,
      "solvere_": 7549,
      "scripturarum_": 7550,
      "cio": 7551,
      "voc": 7552,
      "ono": 7553,
      "lucu": 7554,
      "intelligend": 7555,
      "in": 7556,
      "dilata": 7557,
      "volebat_": 7558,
      "iet": 7559,
      "gregorii_": 7560,
      "devotio_": 7561,
      "daemones_": 7562,
      "these": 7563,
      "oporteat_": 7564,
      "flt": 7565,
      "feliciter_": 7566,
      "erimus_": 7567,
      "debe": 7568,
      "anu": 7569,
      "teu": 7570,
      "retine": 7571,
      "invis": 7572,
      "interp": 7573,
      "impii_": 7574,
      "hem": 7575,
      "dicu": 7576,
      "confu": 7577,
      "alban": 7578,
      "iff": 7579,
      "emat": 7580,
      "confid": 7581,
      "similitudi_": 7582,
      "prolat": 7583,
      "noii_": 7584,
      "le": 7585,
      "idis_": 7586,
      "egredi": 7587,
      "dani": 7588,
      "resist": 7589,
      "out": 7590,
      "generationis_": 7591,
      "capitulum_": 7592,
      "avo": 7593,
      "œ_": 7594,
      "uros_": 7595,
      "tiis_": 7596,
      "ript": 7597,
      "orationibus_": 7598,
      "lo": 7599,
      "divinitus_": 7600,
      "aristo": 7601,
      "vot": 7602,
      "tip": 7603,
      "qai": 7604,
      "facultas_": 7605,
      "undis_": 7606,
      "principatus_": 7607,
      "concu": 7608,
      "conc_": 7609,
      "simi_": 7610,
      "procer": 7611,
      "og": 7612,
      "illustri": 7613,
      "101_": 7614,
      "veneri": 7615,
      "dari": 7616,
      "coro": 7617,
      "consiliis_": 7618,
      "modic": 7619,
      "lucid": 7620,
      "jos": 7621,
      "captus_": 7622,
      "tz": 7623,
      "magnifica": 7624,
      "evan": 7625,
      "ér": 7626,
      "quaelibet_": 7627,
      "issima_": 7628,
      "iori": 7629,
      "fasci": 7630,
      "dif": 7631,
      "demer": 7632,
      "conj": 7633,
      "tulli": 7634,
      "instrumentum_": 7635,
      "defende": 7636,
      "bed": 7637,
      "appe": 7638,
      "ru_": 7639,
      "notus_": 7640,
      "nob": 7641,
      "luu": 7642,
      "iati": 7643,
      "corporalis_": 7644,
      "suffici": 7645,
      "relicta_": 7646,
      "gitur_": 7647,
      "gie": 7648,
      "fio_": 7649,
      "fami": 7650,
      "ento_": 7651,
      "consili": 7652,
      "claudi": 7653,
      "auge": 7654,
      "ament": 7655,
      "tribulatio_": 7656,
      "proelium_": 7657,
      "epistolae_": 7658,
      "decreto_": 7659,
      "voci": 7660,
      "reli": 7661,
      "pedem_": 7662,
      "occisus_": 7663,
      "malign": 7664,
      "lant": 7665,
      "flo": 7666,
      "colli": 7667,
      "impetum_": 7668,
      "iiis_": 7669,
      "ianus_": 7670,
      "182": 7671,
      "renuntia": 7672,
      "quide": 7673,
      "modicum_": 7674,
      "militiae_": 7675,
      "ferat_": 7676,
      "rube": 7677,
      "dicebatur_": 7678,
      "cam": 7679,
      "tara": 7680,
      "nori": 7681,
      "ml_": 7682,
      "gus_": 7683,
      "ftatu": 7684,
      "150_": 7685,
      "promove": 7686,
      "praefi": 7687,
      "oru": 7688,
      "oppid": 7689,
      "lecti": 7690,
      "imagines_": 7691,
      "coerce": 7692,
      "terga_": 7693,
      "praesentibus_": 7694,
      "mutu": 7695,
      "manifestat_": 7696,
      "donis_": 7697,
      "alti": 7698,
      "suavi": 7699,
      "omat": 7700,
      "insulam_": 7701,
      "gentili": 7702,
      "erus_": 7703,
      "commo": 7704,
      "bec": 7705,
      "accens": 7706,
      "solut": 7707,
      "salva_": 7708,
      "ral": 7709,
      "pun": 7710,
      "nobiles_": 7711,
      "hoste_": 7712,
      "cim": 7713,
      "aur": 7714,
      "astronomo_": 7715,
      "vocabulo_": 7716,
      "vat_": 7717,
      "uui": 7718,
      "pero": 7719,
      "datam_": 7720,
      "collegio_": 7721,
      "alve": 7722,
      "salomo_": 7723,
      "roe": 7724,
      "prodigi": 7725,
      "industria_": 7726,
      "indici": 7727,
      "gue": 7728,
      "dee": 7729,
      "aim": 7730,
      "abduc": 7731,
      "silentio_": 7732,
      "psi": 7733,
      "laud": 7734,
      "32": 7735,
      "tenent_": 7736,
      "stephanus_": 7737,
      "see": 7738,
      "qao": 7739,
      "populorum_": 7740,
      "papam_": 7741,
      "iniuriam_": 7742,
      "icia": 7743,
      "gcn": 7744,
      "fcr": 7745,
      "ded": 7746,
      "db_": 7747,
      "abbatis_": 7748,
      "\\u": 7749,
      "uot": 7750,
      "tib": 7751,
      "movere_": 7752,
      "ege": 7753,
      "disputatio_": 7754,
      "cona": 7755,
      "bot": 7756,
      "baptismi_": 7757,
      "adj": 7758,
      "ider": 7759,
      "hercle_": 7760,
      "furor_": 7761,
      "doctissim": 7762,
      "sententiarum_": 7763,
      "auxi": 7764,
      "summa": 7765,
      "ree": 7766,
      "cad": 7767,
      "appellant_": 7768,
      "aestima": 7769,
      "scho": 7770,
      "improba": 7771,
      "erit": 7772,
      "asin": 7773,
      "loq": 7774,
      "hi": 7775,
      "erudi": 7776,
      "ecclesi": 7777,
      "augustinum_": 7778,
      "anii": 7779,
      "alic": 7780,
      "statione": 7781,
      "sch": 7782,
      "pha": 7783,
      "ordinari": 7784,
      "culi_": 7785,
      "vaca": 7786,
      "traditur_": 7787,
      "quibuscumque_": 7788,
      "oga": 7789,
      "obedien": 7790,
      "condit": 7791,
      "voluntari": 7792,
      "tenta": 7793,
      "imperfect": 7794,
      "iei": 7795,
      "crgo_": 7796,
      "audaci": 7797,
      "patrimoni": 7798,
      "nolo_": 7799,
      "ejusmodi_": 7800,
      "dui": 7801,
      "ditur_": 7802,
      "alii": 7803,
      "aerari": 7804,
      "accepimus_": 7805,
      "vocibus_": 7806,
      "uva": 7807,
      "tian": 7808,
      "terminat": 7809,
      "exsul": 7810,
      "institutio_": 7811,
      "frequenta": 7812,
      "fate": 7813,
      "detesta": 7814,
      "sser": 7815,
      "moderat": 7816,
      "codicis_": 7817,
      "punctum_": 7818,
      "pui": 7819,
      "archiepiscopus_": 7820,
      "^^": 7821,
      "erv": 7822,
      "abbatem_": 7823,
      "130_": 7824,
      "plene_": 7825,
      "mene": 7826,
      "lj": 7827,
      "kir": 7828,
      "ital": 7829,
      "dix": 7830,
      "sacrifica": 7831,
      "rese": 7832,
      "hera": 7833,
      "arbor_": 7834,
      "uobis_": 7835,
      "professor_": 7836,
      "periculis_": 7837,
      "obvia": 7838,
      "mutua": 7839,
      "fortissim": 7840,
      "alm": 7841,
      "voi": 7842,
      "sorte_": 7843,
      "nensis_": 7844,
      "ende": 7845,
      "duplici_": 7846,
      "wl": 7847,
      "tanto": 7848,
      "strict": 7849,
      "oqu": 7850,
      "lanu": 7851,
      "la": 7852,
      "epicur": 7853,
      "concupiscentia_": 7854,
      "abr": 7855,
      "tristis_": 7856,
      "theu": 7857,
      "sermonibus_": 7858,
      "exigu": 7859,
      "pona": 7860,
      "int": 7861,
      "existens_": 7862,
      "continentur_": 7863,
      "cale": 7864,
      "crud": 7865,
      "sw": 7866,
      "sem": 7867,
      "jio": 7868,
      "evangelista_": 7869,
      "ose_": 7870,
      "lep": 7871,
      "gari": 7872,
      "ftt": 7873,
      "essem_": 7874,
      "^^&_": 7875,
      "repudia": 7876,
      "rate": 7877,
      "gat": 7878,
      "eran": 7879,
      "additur_": 7880,
      "rece": 7881,
      "perveni": 7882,
      "particula": 7883,
      "iter": 7884,
      "affecti": 7885,
      "abat_": 7886,
      "propius_": 7887,
      "petend": 7888,
      "infirmitate_": 7889,
      "ech": 7890,
      "contentio_": 7891,
      "alci": 7892,
      "neptun": 7893,
      "loque": 7894,
      "fluctus_": 7895,
      "ena_": 7896,
      "dederunt_": 7897,
      "astu": 7898,
      "ponend": 7899,
      "nini": 7900,
      "mutat": 7901,
      "inferos_": 7902,
      "hea": 7903,
      "disce": 7904,
      "dictam_": 7905,
      "anl": 7906,
      "animat": 7907,
      "fune": 7908,
      "differ": 7909,
      "arcadi": 7910,
      "aqu": 7911,
      "volenti": 7912,
      "posc": 7913,
      "phae": 7914,
      "nobilissim": 7915,
      "movens_": 7916,
      "ludi_": 7917,
      "superiores_": 7918,
      "sicu": 7919,
      "osc": 7920,
      "expuls": 7921,
      "ephe": 7922,
      "crati": 7923,
      "clerici_": 7924,
      "certamine_": 7925,
      "perdi": 7926,
      "ise_": 7927,
      "esca": 7928,
      "uerba_": 7929,
      "tj_": 7930,
      "pit": 7931,
      "ostium_": 7932,
      "jura_": 7933,
      "bonitas_": 7934,
      "amicitiae_": 7935,
      "soni": 7936,
      "rationi_": 7937,
      "ram": 7938,
      "electionem_": 7939,
      "undi": 7940,
      "terea_": 7941,
      "tatum_": 7942,
      "sis": 7943,
      "orand": 7944,
      "nto_": 7945,
      "consulem_": 7946,
      "stante": 7947,
      "sax": 7948,
      "minim": 7949,
      "mart_": 7950,
      "kx": 7951,
      "fideliter_": 7952,
      "bum_": 7953,
      "riu": 7954,
      "rcs": 7955,
      "graph": 7956,
      "exemplari": 7957,
      "regna": 7958,
      "importat_": 7959,
      "dummodo_": 7960,
      "continenti": 7961,
      "benedict": 7962,
      "aliunde_": 7963,
      "aj_": 7964,
      "ae": 7965,
      "93": 7966,
      "utu": 7967,
      "comparationem_": 7968,
      "yin": 7969,
      "rufin": 7970,
      "persuade": 7971,
      "lao": 7972,
      "hra": 7973,
      "germania_": 7974,
      "cura": 7975,
      "chris": 7976,
      "tula": 7977,
      "justiti": 7978,
      "facienda_": 7979,
      "cula": 7980,
      "cos": 7981,
      "cantat": 7982,
      "aus_": 7983,
      "140_": 7984,
      "uio": 7985,
      "parie": 7986,
      "opibus_": 7987,
      "negotiis_": 7988,
      "generi_": 7989,
      "faust": 7990,
      "exitum_": 7991,
      "compendi": 7992,
      "bui": 7993,
      "tota": 7994,
      "tetur_": 7995,
      "prosequ": 7996,
      "papa": 7997,
      "migra": 7998,
      "libidin": 7999,
      "honi": 8000,
      "ullum_": 8001,
      "uet": 8002,
      "occulta": 8003,
      "mim": 8004,
      "creat": 8005,
      "clavi": 8006,
      "vitr": 8007,
      "rica": 8008,
      "quaestor": 8009,
      "damnum_": 8010,
      "conveni": 8011,
      "confirmat_": 8012,
      "aposto": 8013,
      "aedificat": 8014,
      "95": 8015,
      "praesentium_": 8016,
      "praecepto_": 8017,
      "\\\\": 8018,
      "tartar": 8019,
      "observat": 8020,
      "jur": 8021,
      "iend": 8022,
      "him_": 8023,
      "solebat_": 8024,
      "sepult": 8025,
      "septen": 8026,
      "senten": 8027,
      "rou": 8028,
      "paratus_": 8029,
      "mirabili": 8030,
      "metro": 8031,
      "gii": 8032,
      "etc": 8033,
      "emer": 8034,
      "claudius_": 8035,
      "bora": 8036,
      "artium_": 8037,
      "tentat": 8038,
      "ste_": 8039,
      "spiritualem_": 8040,
      "jia": 8041,
      "hispani": 8042,
      "disca": 8043,
      "dinem_": 8044,
      "beatissim": 8045,
      "vacuum_": 8046,
      "quaero_": 8047,
      "ligno_": 8048,
      "gine": 8049,
      "ffl": 8050,
      "domina": 8051,
      "sip": 8052,
      "modera": 8053,
      "legendum_": 8054,
      "iovis_": 8055,
      "videret_": 8056,
      "unit": 8057,
      "suspicio_": 8058,
      "ssimam_": 8059,
      "plenam_": 8060,
      "lac_": 8061,
      "intelligibili": 8062,
      "graui": 8063,
      "figuram_": 8064,
      "vestr": 8065,
      "rm": 8066,
      "ref_": 8067,
      "prophetarum_": 8068,
      "positis_": 8069,
      "pium_": 8070,
      "nece": 8071,
      "intu": 8072,
      "didi": 8073,
      "clam_": 8074,
      "unumquodque_": 8075,
      "rus": 8076,
      "enim": 8077,
      "cessi": 8078,
      "singularis_": 8079,
      "sidoni": 8080,
      "qae_": 8081,
      "plebem_": 8082,
      "nof": 8083,
      "intere": 8084,
      "ilic": 8085,
      "iali": 8086,
      "fibi_": 8087,
      "cept": 8088,
      "nic": 8089,
      "infl": 8090,
      "ico": 8091,
      "iacob": 8092,
      "gem": 8093,
      "fut": 8094,
      "flori": 8095,
      "diligenti": 8096,
      "dcn": 8097,
      "cantu": 8098,
      "actionis_": 8099,
      "servire_": 8100,
      "rupt": 8101,
      "dominica_": 8102,
      "unguent": 8103,
      "succi": 8104,
      "positio_": 8105,
      "ord": 8106,
      "mque_": 8107,
      "hostili": 8108,
      "aperta_": 8109,
      "uae_": 8110,
      "moritur_": 8111,
      "deser": 8112,
      "tim": 8113,
      "lg_": 8114,
      "piu": 8115,
      "intue": 8116,
      "com": 8117,
      "cie_": 8118,
      "ambrosi": 8119,
      "omn": 8120,
      "navibus_": 8121,
      "muneribus_": 8122,
      "maioribus_": 8123,
      "conju": 8124,
      "ping": 8125,
      "opu": 8126,
      "longinqu": 8127,
      "ecti": 8128,
      "diligentia_": 8129,
      "ceu": 8130,
      "aliq": 8131,
      "sacramentis_": 8132,
      "ps": 8133,
      "eil": 8134,
      "jun": 8135,
      "exc": 8136,
      "suus_": 8137,
      "perfectionis_": 8138,
      "legitim": 8139,
      "dap": 8140,
      "une": 8141,
      "praedicatio_": 8142,
      "manuum_": 8143,
      "mandamus_": 8144,
      "ipfum_": 8145,
      "ior": 8146,
      "foi": 8147,
      "exceptis_": 8148,
      "conter": 8149,
      "cba": 8150,
      "unionis_": 8151,
      "probat": 8152,
      "jes": 8153,
      "ipe": 8154,
      "ihi": 8155,
      "dicet_": 8156,
      "conso": 8157,
      "conf": 8158,
      "beatitudinem_": 8159,
      "annua": 8160,
      "nior": 8161,
      "lm_": 8162,
      "alv": 8163,
      "supplicium_": 8164,
      "quiesc": 8165,
      "permis": 8166,
      "nemini_": 8167,
      "monet_": 8168,
      "humiliter_": 8169,
      "difc": 8170,
      "compu": 8171,
      "abit_": 8172,
      "turb": 8173,
      "qaod_": 8174,
      "pellicula_": 8175,
      "luge": 8176,
      "citat": 8177,
      "asta": 8178,
      "retinere_": 8179,
      "iuven": 8180,
      "duca": 8181,
      "adimple": 8182,
      "tarum_": 8183,
      "martini_": 8184,
      "fua": 8185,
      "content": 8186,
      "coetu": 8187,
      "providentia_": 8188,
      "meru": 8189,
      "lior": 8190,
      "iussu_": 8191,
      "dig": 8192,
      "conversio_": 8193,
      "ater": 8194,
      "aspici": 8195,
      "sacro_": 8196,
      "pl": 8197,
      "nici": 8198,
      "doct": 8199,
      "contentus_": 8200,
      "voluerunt_": 8201,
      "urg": 8202,
      "locat": 8203,
      "jv": 8204,
      "interroga": 8205,
      "icu": 8206,
      "gali": 8207,
      "difl": 8208,
      "dicantur_": 8209,
      "bu_": 8210,
      "promi": 8211,
      "postulat_": 8212,
      "poen": 8213,
      "mono": 8214,
      "judi": 8215,
      "cript": 8216,
      "commentario": 8217,
      "barba": 8218,
      "astri": 8219,
      "viri": 8220,
      "sil_": 8221,
      "latinis_": 8222,
      "epis": 8223,
      "dissolut": 8224,
      "baptizat": 8225,
      "vv_": 8226,
      "vestras_": 8227,
      "sexus_": 8228,
      "mah": 8229,
      "erar": 8230,
      "beu": 8231,
      "lusi": 8232,
      "eb": 8233,
      "comme": 8234,
      "acerbi": 8235,
      "vidua": 8236,
      "refer": 8237,
      "pert": 8238,
      "onc": 8239,
      "matri_": 8240,
      "insti": 8241,
      "heredi": 8242,
      "gavi": 8243,
      "dip": 8244,
      "decem": 8245,
      "cine": 8246,
      "capitul": 8247,
      "к": 8248,
      "vas": 8249,
      "tollit_": 8250,
      "milita": 8251,
      "lg42_": 8252,
      "denari": 8253,
      "confessionem_": 8254,
      "circuitu_": 8255,
      "97": 8256,
      "signi": 8257,
      "pam": 8258,
      "loe": 8259,
      "imo": 8260,
      "alit": 8261,
      "uoca": 8262,
      "recessit_": 8263,
      "pauperibus_": 8264,
      "mem": 8265,
      "ationis_": 8266,
      "dixer": 8267,
      "casibus_": 8268,
      "remissionem_": 8269,
      "reddit": 8270,
      "orph": 8271,
      "leguntur_": 8272,
      "incertum_": 8273,
      "gal": 8274,
      "futuram_": 8275,
      "dolos": 8276,
      "casi": 8277,
      "ta": 8278,
      "superbi": 8279,
      "schola_": 8280,
      "ptum_": 8281,
      "parti_": 8282,
      "opa": 8283,
      "iudicii_": 8284,
      "constitutio_": 8285,
      "beatum_": 8286,
      "abili": 8287,
      "4i": 8288,
      "tag": 8289,
      "ioni": 8290,
      "alexandro_": 8291,
      "rosci": 8292,
      "perfectam_": 8293,
      "iy_": 8294,
      "humilitatem_": 8295,
      "adhibetur_": 8296,
      "vincula_": 8297,
      "superiori_": 8298,
      "subit": 8299,
      "stadi": 8300,
      "lul": 8301,
      "juli": 8302,
      "hce": 8303,
      "enta_": 8304,
      "christianorum_": 8305,
      "alienis_": 8306,
      "primari": 8307,
      "perr": 8308,
      "onti": 8309,
      "infelix_": 8310,
      "fontes_": 8311,
      "convener": 8312,
      "20": 8313,
      "subsidi": 8314,
      "scie": 8315,
      "praesentem_": 8316,
      "memoratu": 8317,
      "mat_": 8318,
      "iterat": 8319,
      "aureo": 8320,
      "vid": 8321,
      "tenea": 8322,
      "sae": 8323,
      "rector_": 8324,
      "pravi": 8325,
      "ifer": 8326,
      "cornu_": 8327,
      "contine": 8328,
      "collegi": 8329,
      "amar": 8330,
      "94": 8331,
      "vicus_": 8332,
      "praedicatur_": 8333,
      "osis_": 8334,
      "ql": 8335,
      "ludi": 8336,
      "igna": 8337,
      "td_": 8338,
      "pueris_": 8339,
      "pontificem_": 8340,
      "iace": 8341,
      "culpa": 8342,
      "car": 8343,
      "125_": 8344,
      "wit": 8345,
      "tuli": 8346,
      "praeter": 8347,
      "mona": 8348,
      "gaudet_": 8349,
      "erat": 8350,
      "conr": 8351,
      "civi": 8352,
      "aureli": 8353,
      "seque": 8354,
      "pect": 8355,
      "fect": 8356,
      "este": 8357,
      "consum": 8358,
      "consist": 8359,
      "κα": 8360,
      "ê": 8361,
      "tad": 8362,
      "stica": 8363,
      "perde": 8364,
      "opta": 8365,
      "loquor_": 8366,
      "dispensatio_": 8367,
      "promisit_": 8368,
      "natu_": 8369,
      "junct": 8370,
      "dro": 8371,
      "114_": 8372,
      "superiore_": 8373,
      "sev": 8374,
      "diac": 8375,
      "96": 8376,
      "fur_": 8377,
      "erentur_": 8378,
      "epistol": 8379,
      "aea": 8380,
      "timet_": 8381,
      "robur_": 8382,
      "more": 8383,
      "sori": 8384,
      "iuva": 8385,
      "atta": 8386,
      "tente": 8387,
      "simplici": 8388,
      "scl": 8389,
      "pers": 8390,
      "aue": 8391,
      "relig": 8392,
      "iqu": 8393,
      "erl": 8394,
      "conce": 8395,
      "castr": 8396,
      "retent": 8397,
      "requirit_": 8398,
      "mars": 8399,
      "francorum_": 8400,
      "eligend": 8401,
      "diversi": 8402,
      "uita_": 8403,
      "pristina": 8404,
      "nationes_": 8405,
      "lepid": 8406,
      "bap": 8407,
      "rir": 8408,
      "occ": 8409,
      "llus_": 8410,
      "dices_": 8411,
      "cob": 8412,
      "christiana_": 8413,
      "tende": 8414,
      "rsum_": 8415,
      "qnia_": 8416,
      "porrig": 8417,
      "nuptias_": 8418,
      "haeretici_": 8419,
      "dubitatio_": 8420,
      "dana": 8421,
      "evo": 8422,
      "diver": 8423,
      "diri": 8424,
      "traduc": 8425,
      "sob": 8426,
      "sexta_": 8427,
      "legatis_": 8428,
      "epic": 8429,
      "chri": 8430,
      "apposit": 8431,
      "adeptus_": 8432,
      "8t": 8433,
      "ä": 8434,
      "vallis_": 8435,
      "sponde": 8436,
      "cruci": 8437,
      "compa": 8438,
      "arl": 8439,
      "“_": 8440,
      "strenu": 8441,
      "state": 8442,
      "possi": 8443,
      "plenus_": 8444,
      "indiget_": 8445,
      "hiero": 8446,
      "hard": 8447,
      "disced": 8448,
      "concipi": 8449,
      "ambo": 8450,
      "virili": 8451,
      "uta_": 8452,
      "novus_": 8453,
      "nali": 8454,
      "iratus_": 8455,
      "fol": 8456,
      "popu": 8457,
      "nica": 8458,
      "morali": 8459,
      "intellige": 8460,
      "olis_": 8461,
      "nri": 8462,
      "judaeis_": 8463,
      "iva": 8464,
      "fte": 8465,
      "expugna": 8466,
      "excellenti": 8467,
      "usura": 8468,
      "qd": 8469,
      "nk": 8470,
      "intro": 8471,
      "iaci": 8472,
      "georgius_": 8473,
      "contig": 8474,
      "adscrib": 8475,
      "mb": 8476,
      "cathedra": 8477,
      "avt": 8478,
      "accipiat_": 8479,
      "180_": 8480,
      "tnm_": 8481,
      "sensi": 8482,
      "recl": 8483,
      "plerisque_": 8484,
      "pende": 8485,
      "odit_": 8486,
      "nita": 8487,
      "iuud_": 8488,
      "cnt": 8489,
      "amic": 8490,
      "nepos_": 8491,
      "kays_": 8492,
      "jit": 8493,
      "inpr": 8494,
      "humiliat": 8495,
      "gaude": 8496,
      "conc": 8497,
      "lionis_": 8498,
      "atheniensi": 8499,
      "8i": 8500,
      "3o_": 8501,
      "revocat": 8502,
      "recitat": 8503,
      "canti": 8504,
      "aras_": 8505,
      "39": 8506,
      "tribut": 8507,
      "synodi_": 8508,
      "las": 8509,
      "inferioris_": 8510,
      "feminae_": 8511,
      "demonstrat_": 8512,
      "abst": 8513,
      "volt": 8514,
      "numen_": 8515,
      "hali": 8516,
      "face": 8517,
      "valerius_": 8518,
      "siae_": 8519,
      "reali": 8520,
      "quamobrem_": 8521,
      "psa": 8522,
      "peregrina": 8523,
      "occulta_": 8524,
      "medii_": 8525,
      "liceret_": 8526,
      "imprimis_": 8527,
      "iano_": 8528,
      "basi": 8529,
      "vac": 8530,
      "pontifici": 8531,
      "mdi": 8532,
      "lien": 8533,
      "inler": 8534,
      "horta": 8535,
      "dk": 8536,
      "31": 8537,
      "153": 8538,
      "xus_": 8539,
      "solidi": 8540,
      "existima": 8541,
      "calam": 8542,
      "uberi": 8543,
      "proe": 8544,
      "invidiam_": 8545,
      "entiam_": 8546,
      "inn": 8547,
      "fni": 8548,
      "fì": 8549,
      "de": 8550,
      "conclusio_": 8551,
      "bita": 8552,
      "=": 8553,
      "vapor": 8554,
      "pila": 8555,
      "lunae_": 8556,
      "latent": 8557,
      "auer": 8558,
      "atting": 8559,
      "leva": 8560,
      "iuuen": 8561,
      "dedicat": 8562,
      "cxp": 8563,
      "virginem_": 8564,
      "rif": 8565,
      "repr": 8566,
      "nur": 8567,
      "incess": 8568,
      "iba": 8569,
      "enf": 8570,
      "dominium_": 8571,
      "deorsum_": 8572,
      "ulli": 8573,
      "rch": 8574,
      "orat": 8575,
      "laeta": 8576,
      "igne": 8577,
      "exige": 8578,
      "arb": 8579,
      "star": 8580,
      "sciat_": 8581,
      "remitte": 8582,
      "patru": 8583,
      "oppida_": 8584,
      "nesci": 8585,
      "mobili": 8586,
      "exact": 8587,
      "comprehendit_": 8588,
      "ceret_": 8589,
      "angelum_": 8590,
      "sso_": 8591,
      "pon": 8592,
      "laboribus_": 8593,
      "icul": 8594,
      "gf": 8595,
      "directe_": 8596,
      "deputa": 8597,
      "dent_": 8598,
      "dantur_": 8599,
      "apt": 8600,
      "amy": 8601,
      "stus_": 8602,
      "servand": 8603,
      "qno_": 8604,
      "isc": 8605,
      "confess": 8606,
      "119_": 8607,
      "supera": 8608,
      "sedi": 8609,
      "secundi_": 8610,
      "nol": 8611,
      "invitat": 8612,
      "fuper": 8613,
      "fals": 8614,
      "99": 8615,
      "28": 8616,
      "sacerdotis_": 8617,
      "quanti_": 8618,
      "posteriori": 8619,
      "lca": 8620,
      "cxx": 8621,
      "crt": 8622,
      "vigila": 8623,
      "sumi": 8624,
      "ruf": 8625,
      "quere": 8626,
      "pem": 8627,
      "patr": 8628,
      "dcl": 8629,
      "viu": 8630,
      "tabulis_": 8631,
      "stip": 8632,
      "rem": 8633,
      "quovis_": 8634,
      "praecipu": 8635,
      "oft": 8636,
      "crescit_": 8637,
      "refera": 8638,
      "necdum_": 8639,
      "magistrum_": 8640,
      "zat": 8641,
      "portum_": 8642,
      "hoi": 8643,
      "carr": 8644,
      "cand": 8645,
      "aran": 8646,
      "sonitu": 8647,
      "recon": 8648,
      "pal_": 8649,
      "fideicommiss": 8650,
      "enus_": 8651,
      "eji": 8652,
      "casta": 8653,
      "turus_": 8654,
      "recol": 8655,
      "promissa_": 8656,
      "phar": 8657,
      "casti": 8658,
      "admo": 8659,
      "yet": 8660,
      "voluntati_": 8661,
      "insit": 8662,
      "comitem_": 8663,
      "cogitat": 8664,
      "uiri": 8665,
      "reum_": 8666,
      "nce": 8667,
      "applica": 8668,
      "2007_": 8669,
      "splendid": 8670,
      "quacumque_": 8671,
      "numi": 8672,
      "juste_": 8673,
      "gula": 8674,
      "exili": 8675,
      "eph": 8676,
      "conu": 8677,
      "cadent": 8678,
      "ael": 8679,
      "inpe": 8680,
      "diru": 8681,
      "celeriter_": 8682,
      "carn": 8683,
      "tita": 8684,
      "prece": 8685,
      "mandatis_": 8686,
      "gna": 8687,
      "eximi": 8688,
      "destinat": 8689,
      "curi": 8690,
      "crem": 8691,
      "compare": 8692,
      "aegypto_": 8693,
      "xai_": 8694,
      "verius_": 8695,
      "nqu": 8696,
      "get_": 8697,
      "gestis_": 8698,
      "continua": 8699,
      "aufer": 8700,
      "rega": 8701,
      "obsecro_": 8702,
      "neu": 8703,
      "anglia_": 8704,
      "sv_": 8705,
      "sponsa_": 8706,
      "speciali_": 8707,
      "serat_": 8708,
      "seme": 8709,
      "rima": 8710,
      "ratum_": 8711,
      "prioribus_": 8712,
      "commemorat_": 8713,
      "carissim": 8714,
      "velo": 8715,
      "stella_": 8716,
      "reservat": 8717,
      "propositi": 8718,
      "matrimonii_": 8719,
      "flr": 8720,
      "defle": 8721,
      "caeli": 8722,
      "ad": 8723,
      "inat": 8724,
      "eg": 8725,
      "quodcumque_": 8726,
      "pri_": 8727,
      "praen": 8728,
      "otium_": 8729,
      "mia": 8730,
      "lustra": 8731,
      "laeti": 8732,
      "eam": 8733,
      "sco": 8734,
      "rare_": 8735,
      "off": 8736,
      "licentiam_": 8737,
      "formis_": 8738,
      "disse": 8739,
      "commenda": 8740,
      "arri": 8741,
      "170_": 8742,
      "145_": 8743,
      "vixit_": 8744,
      "spr": 8745,
      "nes": 8746,
      "mir": 8747,
      "quic": 8748,
      "pelli": 8749,
      "limite": 8750,
      "lab": 8751,
      "facie": 8752,
      "dru": 8753,
      "cogi": 8754,
      "agentis_": 8755,
      "abrahae_": 8756,
      "votis_": 8757,
      "sei_": 8758,
      "med": 8759,
      "levi_": 8760,
      "depre": 8761,
      "concessa_": 8762,
      "certissim": 8763,
      "cert": 8764,
      "af_": 8765,
      "virgines_": 8766,
      "tibi": 8767,
      "run": 8768,
      "columna": 8769,
      "bibe": 8770,
      "atro": 8771,
      "alli": 8772,
      "tele": 8773,
      "scandalum_": 8774,
      "satura": 8775,
      "reverentia_": 8776,
      "recorda": 8777,
      "etf": 8778,
      "deder": 8779,
      "viridi": 8780,
      "orde": 8781,
      "loqua": 8782,
      "iidem_": 8783,
      "fa": 8784,
      "interesse_": 8785,
      "gaudere_": 8786,
      "facu": 8787,
      "definit": 8788,
      "ble": 8789,
      "xn": 8790,
      "xat": 8791,
      "venus_": 8792,
      "resc": 8793,
      "perp": 8794,
      "nil": 8795,
      "isaac_": 8796,
      "declarat_": 8797,
      "constituer": 8798,
      "bund": 8799,
      "adversari": 8800,
      "vitiorum_": 8801,
      "trepida": 8802,
      "reside": 8803,
      "quantitas_": 8804,
      "johannis_": 8805,
      "itar": 8806,
      "toris_": 8807,
      "nequit_": 8808,
      "integri": 8809,
      "iiia": 8810,
      "from_": 8811,
      "exaltat": 8812,
      "duc": 8813,
      "commuta": 8814,
      "pale": 8815,
      "nsem_": 8816,
      "nominat_": 8817,
      "morti_": 8818,
      "merit": 8819,
      "iif": 8820,
      "hec": 8821,
      "fx": 8822,
      "bati": 8823,
      "ilii": 8824,
      "icat": 8825,
      "herm": 8826,
      "pass": 8827,
      "notio_": 8828,
      "mensibus_": 8829,
      "iusti": 8830,
      "cord": 8831,
      "cogite": 8832,
      "basili": 8833,
      "horam_": 8834,
      "conversa": 8835,
      "pom": 8836,
      "politic": 8837,
      "laudabili": 8838,
      "hebraeo": 8839,
      "fua_": 8840,
      "citi": 8841,
      "aeli": 8842,
      "wn": 8843,
      "ntia": 8844,
      "maxim": 8845,
      "itur": 8846,
      "firma_": 8847,
      "avi_": 8848,
      "auguri": 8849,
      "apta_": 8850,
      "antonium_": 8851,
      "xf": 8852,
      "scunt_": 8853,
      "quina": 8854,
      "praei": 8855,
      "ors": 8856,
      "latinum_": 8857,
      "itio_": 8858,
      "impon": 8859,
      "fraude_": 8860,
      "fanum_": 8861,
      "termino_": 8862,
      "praebet_": 8863,
      "essc_": 8864,
      "commendat_": 8865,
      "bonitatem_": 8866,
      "bod": 8867,
      "odo": 8868,
      "muit": 8869,
      "into": 8870,
      "hil_": 8871,
      "serie_": 8872,
      "oso": 8873,
      "flc": 8874,
      "fabulae_": 8875,
      "delet": 8876,
      "conta": 8877,
      "card": 8878,
      "bp": 8879,
      "victima": 8880,
      "veste_": 8881,
      "titulum_": 8882,
      "qiii": 8883,
      "philosophum_": 8884,
      "orio_": 8885,
      "iura": 8886,
      "diii": 8887,
      "uent": 8888,
      "trahit_": 8889,
      "serua": 8890,
      "radix_": 8891,
      "iudica": 8892,
      "imitat": 8893,
      "genes_": 8894,
      "scot": 8895,
      "franco": 8896,
      "amplex": 8897,
      "uncia": 8898,
      "tabe": 8899,
      "stum_": 8900,
      "socrates_": 8901,
      "soc": 8902,
      "sallusti": 8903,
      "quai_": 8904,
      "oet": 8905,
      "erept": 8906,
      "crc": 8907,
      "britannia": 8908,
      "yf": 8909,
      "tardi": 8910,
      "nora": 8911,
      "longior": 8912,
      "consensus_": 8913,
      "adem": 8914,
      "vergilius_": 8915,
      "monia": 8916,
      "lucan": 8917,
      "filias_": 8918,
      "devo": 8919,
      "codicum_": 8920,
      "civili": 8921,
      "cena": 8922,
      "tie_": 8923,
      "tep": 8924,
      "praeci": 8925,
      "perti": 8926,
      "iracundia": 8927,
      "cor": 8928,
      "civili_": 8929,
      "tena": 8930,
      "plini": 8931,
      "eua": 8932,
      "diaconus_": 8933,
      "constitutus_": 8934,
      "bula": 8935,
      "agris_": 8936,
      "abd": 8937,
      "152": 8938,
      "mium_": 8939,
      "ling": 8940,
      "jos_": 8941,
      "inar": 8942,
      "eft": 8943,
      "dictat": 8944,
      "conscientiam_": 8945,
      "112_": 8946,
      "viscera_": 8947,
      "trem": 8948,
      "simulat": 8949,
      "grava": 8950,
      "diffi": 8951,
      "differentiam_": 8952,
      "volentes_": 8953,
      "sallustius_": 8954,
      "poff": 8955,
      "membrorum_": 8956,
      "mati": 8957,
      "jussit_": 8958,
      "git": 8959,
      "exs": 8960,
      "destrue": 8961,
      "demonstrat": 8962,
      "conscientiae_": 8963,
      "conduct": 8964,
      "yra": 8965,
      "successor_": 8966,
      "diacon": 8967,
      "creaturis_": 8968,
      "7r": 8969,
      "utilis_": 8970,
      "nemor": 8971,
      "moyse_": 8972,
      "discrimen_": 8973,
      "clav": 8974,
      "aun": 8975,
      "aere": 8976,
      "truc": 8977,
      "regn": 8978,
      "rectam_": 8979,
      "qtt": 8980,
      "lier": 8981,
      "fort": 8982,
      "ebe": 8983,
      "curar": 8984,
      "constet_": 8985,
      "xxxiv_": 8986,
      "facerent_": 8987,
      "expu": 8988,
      "dur": 8989,
      "consummat": 8990,
      "aw": 8991,
      "ato": 8992,
      "wi_": 8993,
      "gb": 8994,
      "ek": 8995,
      "tci": 8996,
      "gap": 8997,
      "eto": 8998,
      "elle_": 8999,
      "eccl_": 9000,
      "doo": 9001,
      "reversus_": 9002,
      "quaeris_": 9003,
      "mitte": 9004,
      "hodiern": 9005,
      "fato_": 9006,
      "canonico": 9007,
      "xan": 9008,
      "symp": 9009,
      "suscipere_": 9010,
      "sall": 9011,
      "pk": 9012,
      "elat": 9013,
      "bul": 9014,
      "aulem_": 9015,
      "atu_": 9016,
      "ons": 9017,
      "incert": 9018,
      "contingere_": 9019,
      "care_": 9020,
      "ail": 9021,
      "stupe": 9022,
      "stas_": 9023,
      "sha": 9024,
      "ebur": 9025,
      "cip": 9026,
      "audisse": 9027,
      "argo": 9028,
      "agnosci": 9029,
      "praesidium_": 9030,
      "mensura": 9031,
      "ker": 9032,
      "habenti": 9033,
      "fera_": 9034,
      "fatigat": 9035,
      "turma": 9036,
      "tud": 9037,
      "tempera": 9038,
      "quom_": 9039,
      "quac_": 9040,
      "opiniones_": 9041,
      "occidentalis_": 9042,
      "lug": 9043,
      "icti": 9044,
      "dec_": 9045,
      "consumpt": 9046,
      "sumpti": 9047,
      "respici": 9048,
      "profundi": 9049,
      "nov_": 9050,
      "loa": 9051,
      "heb": 9052,
      "gena": 9053,
      "ftra": 9054,
      "cumul": 9055,
      "beneficiis_": 9056,
      "variat": 9057,
      "superiorem_": 9058,
      "divina": 9059,
      "cxl": 9060,
      "consuet": 9061,
      "compon": 9062,
      "carcere_": 9063,
      "brun": 9064,
      "tribui": 9065,
      "tici": 9066,
      "sepultura": 9067,
      "observand": 9068,
      "lx_": 9069,
      "formida": 9070,
      "divin": 9071,
      "conferre_": 9072,
      "circumstantia": 9073,
      "xci": 9074,
      "summis_": 9075,
      "reserva": 9076,
      "oom": 9077,
      "diviti": 9078,
      "dicentem_": 9079,
      "commora": 9080,
      "ariis_": 9081,
      "sci_": 9082,
      "praemi": 9083,
      "pala": 9084,
      "national": 9085,
      "machina": 9086,
      "eic": 9087,
      "dilectus_": 9088,
      "158": 9089,
      "qus": 9090,
      "plaus": 9091,
      "festina": 9092,
      "depreca": 9093,
      "stia": 9094,
      "dand": 9095,
      "charta": 9096,
      "ambrosius_": 9097,
      "alexandrin": 9098,
      "180": 9099,
      "uct": 9100,
      "provincias_": 9101,
      "pet_": 9102,
      "nuncupa": 9103,
      "neo_": 9104,
      "legere_": 9105,
      "coin": 9106,
      "clari": 9107,
      "vulnerat": 9108,
      "ume": 9109,
      "salvat": 9110,
      "redact": 9111,
      "manic": 9112,
      "foe": 9113,
      "det": 9114,
      "crucia": 9115,
      "adult": 9116,
      "//": 9117,
      "vitis_": 9118,
      "socii_": 9119,
      "scripto_": 9120,
      "nubi": 9121,
      "minimum_": 9122,
      "ead": 9123,
      "cognat": 9124,
      "cogere": 9125,
      "ck_": 9126,
      "bcr": 9127,
      "audia": 9128,
      "angli": 9129,
      "videt": 9130,
      "videbitur_": 9131,
      "loquendo_": 9132,
      "ilt": 9133,
      "%": 9134,
      "volun": 9135,
      "supplica": 9136,
      "spiritualibus_": 9137,
      "provinciis_": 9138,
      "monu": 9139,
      "lv_": 9140,
      "ibe": 9141,
      "homo": 9142,
      "exempl": 9143,
      "dori": 9144,
      "custodiam_": 9145,
      "angusti": 9146,
      "urat": 9147,
      "relinquen": 9148,
      "obsequi": 9149,
      "nequitia": 9150,
      "miraculo": 9151,
      "lectura_": 9152,
      "inme": 9153,
      "fec": 9154,
      "eia_": 9155,
      "bellis_": 9156,
      "socius_": 9157,
      "quemdam_": 9158,
      "ministra": 9159,
      "invenimus_": 9160,
      "essa": 9161,
      "aft": 9162,
      "stulti": 9163,
      "omne": 9164,
      "nomini_": 9165,
      "mach": 9166,
      "lum": 9167,
      "lic": 9168,
      "impell": 9169,
      "dett_": 9170,
      "cq": 9171,
      "conse": 9172,
      "claud": 9173,
      "proximus_": 9174,
      "ministerio_": 9175,
      "locutio_": 9176,
      "jurament": 9177,
      "iz": 9178,
      "eoi": 9179,
      "collegii_": 9180,
      "anal": 9181,
      "trib": 9182,
      "rip": 9183,
      "nce_": 9184,
      "moventur_": 9185,
      "urbibus_": 9186,
      "turpe_": 9187,
      "procura": 9188,
      "praedecessor": 9189,
      "pod": 9190,
      "perfec": 9191,
      "operationes_": 9192,
      "gratiarum_": 9193,
      "dau": 9194,
      "viis_": 9195,
      "uict": 9196,
      "temporalia_": 9197,
      "talent": 9198,
      "sid": 9199,
      "optimi_": 9200,
      "odo_": 9201,
      "figura": 9202,
      "congregat": 9203,
      "ahi": 9204,
      "uidi": 9205,
      "posito_": 9206,
      "porc": 9207,
      "infiniti": 9208,
      "honesti": 9209,
      "eis": 9210,
      "disputa": 9211,
      "dedisti_": 9212,
      "decima_": 9213,
      "chr": 9214,
      "use_": 9215,
      "tritic": 9216,
      "habea": 9217,
      "falc": 9218,
      "augusta": 9219,
      "anos_": 9220,
      "valle": 9221,
      "validi": 9222,
      "quaerunt_": 9223,
      "maru": 9224,
      "martyris_": 9225,
      "loni": 9226,
      "inquir": 9227,
      "ik_": 9228,
      "ias": 9229,
      "evad": 9230,
      "defensio_": 9231,
      "croc": 9232,
      "canones_": 9233,
      "caeci": 9234,
      "aeterno_": 9235,
      "perit": 9236,
      "mun": 9237,
      "insidiis_": 9238,
      "effecti": 9239,
      "adici": 9240,
      "tabulas_": 9241,
      "roo": 9242,
      "roma": 9243,
      "reprehend": 9244,
      "mand": 9245,
      "gl": 9246,
      "auri": 9247,
      "adjuva": 9248,
      "accusa": 9249,
      "πο": 9250,
      "rne": 9251,
      "refi": 9252,
      "oportuit_": 9253,
      "nono_": 9254,
      "meruer": 9255,
      "ies": 9256,
      "exempt": 9257,
      "docti_": 9258,
      "cons": 9259,
      "compositio_": 9260,
      "citur_": 9261,
      "ula": 9262,
      "snnt_": 9263,
      "pic": 9264,
      "forme": 9265,
      "decre": 9266,
      "conventus_": 9267,
      "confite": 9268,
      "vig": 9269,
      "spu": 9270,
      "sot": 9271,
      "pura_": 9272,
      "monti": 9273,
      "mel_": 9274,
      "mel": 9275,
      "labe": 9276,
      "gium_": 9277,
      "edo": 9278,
      "edic": 9279,
      "vio": 9280,
[...]
